node {
  name: "global_step/Initializer/zeros"
  op: "Const"
  attr {
    key: "_class"
    value {
      list {
        s: "loc:@global_step"
      }
    }
  }
  attr {
    key: "_output_shapes"
    value {
      list {
        shape {
        }
      }
    }
  }
  attr {
    key: "dtype"
    value {
      type: DT_INT64
    }
  }
  attr {
    key: "value"
    value {
      tensor {
        dtype: DT_INT64
        tensor_shape {
        }
        int64_val: 0
      }
    }
  }
}
node {
  name: "global_step"
  op: "VariableV2"
  attr {
    key: "_class"
    value {
      list {
        s: "loc:@global_step"
      }
    }
  }
  attr {
    key: "_output_shapes"
    value {
      list {
        shape {
        }
      }
    }
  }
  attr {
    key: "container"
    value {
      s: ""
    }
  }
  attr {
    key: "dtype"
    value {
      type: DT_INT64
    }
  }
  attr {
    key: "shape"
    value {
      shape {
      }
    }
  }
  attr {
    key: "shared_name"
    value {
      s: ""
    }
  }
}
node {
  name: "global_step/Assign"
  op: "Assign"
  input: "global_step"
  input: "global_step/Initializer/zeros"
  attr {
    key: "T"
    value {
      type: DT_INT64
    }
  }
  attr {
    key: "_class"
    value {
      list {
        s: "loc:@global_step"
      }
    }
  }
  attr {
    key: "_output_shapes"
    value {
      list {
        shape {
        }
      }
    }
  }
  attr {
    key: "use_locking"
    value {
      b: true
    }
  }
  attr {
    key: "validate_shape"
    value {
      b: true
    }
  }
}
node {
  name: "global_step/read"
  op: "Identity"
  input: "global_step"
  attr {
    key: "T"
    value {
      type: DT_INT64
    }
  }
  attr {
    key: "_class"
    value {
      list {
        s: "loc:@global_step"
      }
    }
  }
  attr {
    key: "_output_shapes"
    value {
      list {
        shape {
        }
      }
    }
  }
}
node {
  name: "global_step/IsVariableInitialized"
  op: "IsVariableInitialized"
  input: "global_step"
  attr {
    key: "_class"
    value {
      list {
        s: "loc:@global_step"
      }
    }
  }
  attr {
    key: "_output_shapes"
    value {
      list {
        shape {
        }
      }
    }
  }
  attr {
    key: "dtype"
    value {
      type: DT_INT64
    }
  }
}
node {
  name: "global_step/cond/Switch"
  op: "Switch"
  input: "global_step/IsVariableInitialized"
  input: "global_step/IsVariableInitialized"
  attr {
    key: "T"
    value {
      type: DT_BOOL
    }
  }
  attr {
    key: "_output_shapes"
    value {
      list {
        shape {
        }
        shape {
        }
      }
    }
  }
}
node {
  name: "global_step/cond/switch_t"
  op: "Identity"
  input: "global_step/cond/Switch:1"
  attr {
    key: "T"
    value {
      type: DT_BOOL
    }
  }
  attr {
    key: "_output_shapes"
    value {
      list {
        shape {
        }
      }
    }
  }
}
node {
  name: "global_step/cond/switch_f"
  op: "Identity"
  input: "global_step/cond/Switch"
  attr {
    key: "T"
    value {
      type: DT_BOOL
    }
  }
  attr {
    key: "_output_shapes"
    value {
      list {
        shape {
        }
      }
    }
  }
}
node {
  name: "global_step/cond/pred_id"
  op: "Identity"
  input: "global_step/IsVariableInitialized"
  attr {
    key: "T"
    value {
      type: DT_BOOL
    }
  }
  attr {
    key: "_output_shapes"
    value {
      list {
        shape {
        }
      }
    }
  }
}
node {
  name: "global_step/cond/read"
  op: "Identity"
  input: "global_step/cond/read/Switch:1"
  attr {
    key: "T"
    value {
      type: DT_INT64
    }
  }
  attr {
    key: "_output_shapes"
    value {
      list {
        shape {
        }
      }
    }
  }
}
node {
  name: "global_step/cond/read/Switch"
  op: "RefSwitch"
  input: "global_step"
  input: "global_step/cond/pred_id"
  attr {
    key: "T"
    value {
      type: DT_INT64
    }
  }
  attr {
    key: "_class"
    value {
      list {
        s: "loc:@global_step"
      }
    }
  }
  attr {
    key: "_output_shapes"
    value {
      list {
        shape {
        }
        shape {
        }
      }
    }
  }
}
node {
  name: "global_step/cond/Switch_1"
  op: "Switch"
  input: "global_step/Initializer/zeros"
  input: "global_step/cond/pred_id"
  attr {
    key: "T"
    value {
      type: DT_INT64
    }
  }
  attr {
    key: "_class"
    value {
      list {
        s: "loc:@global_step"
      }
    }
  }
  attr {
    key: "_output_shapes"
    value {
      list {
        shape {
        }
        shape {
        }
      }
    }
  }
}
node {
  name: "global_step/cond/Merge"
  op: "Merge"
  input: "global_step/cond/Switch_1"
  input: "global_step/cond/read"
  attr {
    key: "N"
    value {
      i: 2
    }
  }
  attr {
    key: "T"
    value {
      type: DT_INT64
    }
  }
  attr {
    key: "_output_shapes"
    value {
      list {
        shape {
        }
        shape {
        }
      }
    }
  }
}
node {
  name: "global_step/add/y"
  op: "Const"
  attr {
    key: "_output_shapes"
    value {
      list {
        shape {
        }
      }
    }
  }
  attr {
    key: "dtype"
    value {
      type: DT_INT64
    }
  }
  attr {
    key: "value"
    value {
      tensor {
        dtype: DT_INT64
        tensor_shape {
        }
        int64_val: 0
      }
    }
  }
}
node {
  name: "global_step/add"
  op: "Add"
  input: "global_step/cond/Merge"
  input: "global_step/add/y"
  attr {
    key: "T"
    value {
      type: DT_INT64
    }
  }
  attr {
    key: "_output_shapes"
    value {
      list {
        shape {
        }
      }
    }
  }
}
node {
  name: "dnn/input_from_feature_columns/input_layer/A_diff/Const"
  op: "Const"
  attr {
    key: "_output_shapes"
    value {
      list {
        shape {
          dim {
            size: 4682
          }
        }
      }
    }
  }
  attr {
    key: "dtype"
    value {
      type: DT_DOUBLE
    }
  }
  attr {
    key: "value"
    value {
      tensor {
        dtype: DT_DOUBLE
        tensor_shape {
          dim {
            size: 4682
          }
        }
        tensor_content: "\333\371~j\274t\243\277\272I\014\002+\207\226\277\374\251\361\322Mb\200?y\351&1\010\254|\277\000\000\000\000\000\000\000\000\374\251\361\322Mb\200?\313\241E\266\363\375\264?{\024\256G\341z\244?D\213l\347\373\251\261?\372~j\274t\223\230\277\033/\335$\006\201\225?L7\211A`\345\240?\331\316\367S\343\245\233?L7\211A`\345\240\277h\221\355|?5\256\277\232\231\231\231\231\231\231?\217\302\365(\\\217\302?\234\304 \260rh\221?{\024\256G\341z\204?\313\241E\266\363\375\244?\311v\276\237\032/\275?\372~j\274t\223\210\2779\264\310v\276\237\252\277\354Q\270\036\205\353\261\277;\337O\215\227n\242?\313\241E\266\363\375\244\277\333\371~j\274t\263\2779\264\310v\276\237\232?;\337O\215\227n\262\277;\337O\215\227n\202?{\024\256G\341z\244?\000\000\000\000\000\000\000\000\331\316\367S\343\245\233\277X9\264\310v\276\237?;\337O\215\227n\222\277;\337O\215\227n\222?;\337O\215\227n\202\277\272I\014\002+\207\226\277{\024\256G\341z\224\277;\337O\215\227n\242\277\372~j\274t\223\250\277\n\327\243p=\n\247\277;\337O\215\227n\202?\272I\014\002+\207\246?\000\000\000\000\000\000\000\0009\264\310v\276\237\252\277\374\251\361\322Mb`\277\272I\014\002+\207\206?Zd;\337O\215\227?X9\264\310v\276\257\277\372~j\274t\223\230?;\337O\215\227n\222\277;\337O\215\227n\202?\232\231\231\231\231\231\231\277\270\036\205\353Q\270\216\277y\351&1\010\254|?b\020X9\264\310\266?\374\251\361\322Mbp\277\031\004V\016-\262\235?\331\316\367S\343\245\233?X9\264\310v\276\237?;\337O\215\227n\242?\333\371~j\274t\243\277;\337O\215\227n\222\277\232\231\231\231\231\231\251?{\024\256G\341z\204\277\364\375\324x\351&\261?\000\000\000\000\000\000\000\000\232\231\231\231\231\231\231?\031\004V\016-\262\235?\372~j\274t\223\230?\033/\335$\006\201\225\277\374\251\361\322Mb`\277\234\304 \260rh\241\277\234\304 \260rh\221\277y\351&1\010\254|?9\264\310v\276\237\232?\232\231\231\231\231\231\231?;\337O\215\227n\262\277\372~j\274t\223\230?\374\251\361\322Mb\200\277\372~j\274t\223\230\277{\024\256G\341z\204\277\000\000\000\000\000\000\000\0009\264\310v\276\237\232\277\000\000\000\000\000\000\000\000\374\251\361\322Mbp?\270\036\205\353Q\270\236\277+\207\026\331\316\367\243?9\264\310v\276\237\212\277\372~j\274t\223\250\277\372~j\274t\223\210\277\223\030\004V\016-\262\277\374\251\361\322Mb`?\234\304 \260rh\221?\333\371~j\274t\243\277\374\251\361\322MbP?\321\"\333\371~j\274\277\372~j\274t\223h?\374\251\361\322Mb`\277\272I\014\002+\207\246?\031\004V\016-\262\235\277{\024\256G\341z\224?\234\304 \260rh\221?\000\000\000\000\000\000\000\000\272I\014\002+\207\226?X9\264\310v\276\237?\010\254\034Zd;\257\277\272I\014\002+\207\206?Zd;\337O\215\227\277\270\036\205\353Q\270\216\2779\264\310v\276\237\212?\232\231\231\231\231\231\251\277\272I\014\002+\207\226?\000\000\000\000\000\000\000\000{\024\256G\341zt\277\374\251\361\322Mb\220\277\372~j\274t\223\230\277\234\304 \260rh\241\277\000\000\000\000\000\000\000\0009\264\310v\276\237\232?\333\371~j\274t\263\277\372~j\274t\223x?\374\251\361\322Mb`?{\024\256G\341z\264\2779\264\310v\276\237\272\277\372~j\274t\223\250\277{\024\256G\341zt\277Zd;\337O\215\247\277\313\241E\266\363\375\244\277\372~j\274t\223\250?\031\004V\016-\262\235\277\272I\014\002+\207\206?\270\036\205\353Q\270\256\277\000\000\000\000\000\000\000\000\374\251\361\322MbP?\374\251\361\322MbP\277\331\316\367S\343\245\233?\372~j\274t\223\230\277\372~j\274t\223\250\277\313\241E\266\363\375\244\277\372~j\274t\223x?\033/\335$\006\201\225\277\213l\347\373\251\361\262\277\234\304 \260rh\221\277\313\241E\266\363\375\244\277\333\371~j\274t\243\277{\024\256G\341z\204?\374\251\361\322Mb\220\277+\207\026\331\316\367\263\277\374\251\361\322MbP?\234\304 \260rh\301\277y\351&1\010\254|\277\000\000\000\000\000\000\000\000\031\004V\016-\262\235?\270\036\205\353Q\270\216\277\000\000\000\000\000\000\000\000\331\316\367S\343\245\233?\000\000\000\000\000\000\000\000\331\316\367S\343\245\233?y\351&1\010\254\214\277\234\304 \260rh\241\277\351&1\010\254\034\252\277\374\251\361\322Mb\220\277\232\231\231\231\231\231\251\277\374\251\361\322Mb\260\277\372~j\274t\223\250\277\374\251\361\322Mbp\277\270\036\205\353Q\270\216?\331\316\367S\343\245\233?\372~j\274t\223\230?9\264\310v\276\237\252?9\264\310v\276\237\212\277\374\251\361\322Mb\240?y\351&1\010\254|\277\372~j\274t\223\210\277\232\231\231\231\231\231\231?\372~j\274t\223\230\277{\024\256G\341z\244?Zd;\337O\215\227?\272I\014\002+\207\226?{\024\256G\341z\204\277\031\004V\016-\262\235?\000\000\000\000\000\000\000\000\211A`\345\320\"\253?\374\251\361\322Mb\200?\374\251\361\322Mb\220\277;\337O\215\227n\222\277\252\361\322Mb\020\250\277\270\036\205\353Q\270\216?;\337O\215\227n\242?;\337O\215\227n\242?\374\251\361\322Mb\200?y\351&1\010\254\234?\372~j\274t\223\210?9\264\310v\276\237\252?\033/\335$\006\201\225\277\374\251\361\322Mbp?{\024\256G\341z\224?\010\254\034Zd;\257?\333\371~j\274t\223?;\337O\215\227n\262\277\374\251\361\322Mb`\277\372~j\274t\223h\277;\337O\215\227n\222?{\024\256G\341zt?D\213l\347\373\251\261?\000\000\000\000\000\000\000\000\374\251\361\322Mb\200?9\264\310v\276\237\212\277D\213l\347\373\251\261?J\014\002+\207\026\251?\372~j\274t\223x\2779\264\310v\276\237\252\277\374\251\361\322Mbp?\372~j\274t\223\210\277;\337O\215\227n\222\277\374\251\361\322Mb`\277\354Q\270\036\205\353\241?\272I\014\002+\207\206?{\024\256G\341zt\277\270\036\205\353Q\270\216\277J\014\002+\207\026\251?{\024\256G\341z\204\277Zd;\337O\215\227\277X9\264\310v\276\257\277y\351&1\010\254|\277\331\316\367S\343\245\233?\311v\276\237\032/\255\277;\337O\215\227n\202\277\n\327\243p=\n\247\277y\351&1\010\254|\277Zd;\337O\215\247\277\033/\335$\006\201\225?y\351&1\010\254|?D\213l\347\373\251\261\277\213l\347\373\251\361\242\277\n\327\243p=\n\247\277;\337O\215\227n\222?\374\251\361\322Mb\220?;\337O\215\227n\202\277\372~j\274t\223x\277;\337O\215\227n\222?{\024\256G\341z\204?J\014\002+\207\026\251?\031\004V\016-\262\235?y\351&1\010\254|?\372~j\274t\223\250?D\213l\347\373\251\261?)\\\217\302\365(\254\277;\337O\215\227n\202\277h\221\355|?5\256?\374\251\361\322Mb`?\354Q\270\036\205\353\241?{\024\256G\341zt\277\372~j\274t\223\210?\272I\014\002+\207\226?\232\231\231\231\231\231\231\277{\024\256G\341z\264\277\272I\014\002+\207\206\277\333\371~j\274t\223\277\000\000\000\000\000\000\000\000\232\231\231\231\231\231\251?\213l\347\373\251\361\242\277y\351&1\010\254|?\372~j\274t\223x?;\337O\215\227n\242?\372~j\274t\223\210?\270\036\205\353Q\270\216?\374\251\361\322Mb`\277\333\371~j\274t\223\277\270\036\205\353Q\270\236?{\024\256G\341z\204\277{\024\256G\341zt?\270\036\205\353Q\270\236?;\337O\215\227n\242?9\264\310v\276\237\252\277Zd;\337O\215\247\277\213l\347\373\251\361\242\277\364\375\324x\351&\261?)\\\217\302\365(\254\277\000\000\000\000\000\000\000\0009\264\310v\276\237\232\277X9\264\310v\276\237?\n\327\243p=\n\247?\211A`\345\320\"\253?D\213l\347\373\251\261\277\211A`\345\320\"\253?9\264\310v\276\237\212\277\333\371~j\274t\243?\374\251\361\322Mb\240\277\372~j\274t\223h?\374\251\361\322MbP?{\024\256G\341zt?\000\000\000\000\000\000\000\000\351&1\010\254\034\252\277y\351&1\010\254|?b\020X9\264\310\266\277\331\316\367S\343\245\233\277{\024\256G\341zt?\374\251\361\322Mbp\2779\264\310v\276\237\252\277;\337O\215\227n\222?\313\241E\266\363\375\244?j\274t\223\030\004\246\277\374\251\361\322Mbp?y\351&1\010\254\234\277Zd;\337O\215\227?\331\316\367S\343\245\233?\372~j\274t\223\250\277{\024\256G\341z\224?\331\316\367S\343\245\233?\372~j\274t\223x\277\372~j\274t\223\210?\234\304 \260rh\261?\374\251\361\322Mbp?\374\251\361\322Mb\220\277{\024\256G\341z\244?{\024\256G\341zt?\270\036\205\353Q\270\216?{\024\256G\341z\224?\232\231\231\231\231\231\231?\333\371~j\274t\223?{\024\256G\341z\244\277\272I\014\002+\207\246?\232\231\231\231\231\231\251\277\313\241E\266\363\375\244?y\351&1\010\254|?\372~j\274t\223\250?{\024\256G\341z\264\2779\264\310v\276\237\252\2779\264\310v\276\237\232\277\031\004V\016-\262\255\277\270\036\205\353Q\270\236\277\374\251\361\322Mbp\277\374\251\361\322Mb\220?X9\264\310v\276\237\277L7\211A`\345\240?L7\211A`\345\240\277\n\327\243p=\n\267\277\033/\335$\006\201\225?\331\316\367S\343\245\233?\272I\014\002+\207\226?\232\231\231\231\231\231\251?\313\241E\266\363\375\244?\n\327\243p=\n\247\277\331\316\367S\343\245\233?;\337O\215\227n\222?R\270\036\205\353Q\270?\372~j\274t\223x\277{\024\256G\341z\224\277y\351&1\010\254\214\2779\264\310v\276\237\232?\234\304 \260rh\221?y\351&1\010\254\214\277X9\264\310v\276\257?\272I\014\002+\207\206?\374\251\361\322Mbp\277\234\304 \260rh\221\277X9\264\310v\276\237?\272I\014\002+\207\226?Zd;\337O\215\247?;\337O\215\227n\222\2779\264\310v\276\237\232\2779\264\310v\276\237\252\277X9\264\310v\276\237?\374\251\361\322Mb\240\277\000\000\000\000\000\000\000\000{\024\256G\341z\244\277\033/\335$\006\201\225?\272I\014\002+\207\246?L7\211A`\345\240?\372~j\274t\223x?\270\036\205\353Q\270\216?+\207\026\331\316\367\243\2779\264\310v\276\237\212?\000\000\000\000\000\000\000\000;\337O\215\227n\242?y\351&1\010\254|?\272I\014\002+\207\206\277\331\316\367S\343\245\233\277\272I\014\002+\207\206?\374\251\361\322MbP?y\351&1\010\254\234\277{\024\256G\341z\244\277\374\251\361\322Mbp?\234\304 \260rh\221?\333\371~j\274t\243\277\270\036\205\353Q\270\236\277\374\251\361\322Mb`\277{\024\256G\341z\224?\374\251\361\322Mb`?\234\304 \260rh\241\277\333\371~j\274t\223?\272I\014\002+\207\206?\270\036\205\353Q\270\216?X9\264\310v\276\257\277\031\004V\016-\262\255?{\024\256G\341z\224?Zd;\337O\215\227?9\264\310v\276\237\212\277\372~j\274t\223\250?\272I\014\002+\207\246?\372~j\274t\223\230\277j\274t\223\030\004\246\277\374\251\361\322Mbp\277\000\000\000\000\000\000\000\000\331\316\367S\343\245\233?T\343\245\233\304 \260?\311v\276\237\032/\255\277\000\000\000\000\000\000\000\000\211A`\345\320\"\253\277\272I\014\002+\207\206?;\337O\215\227n\222\277\372~j\274t\223\210?\374\251\361\322Mb\260?\234\304 \260rh\261\277L7\211A`\345\240\277\372~j\274t\223\250\277\031\004V\016-\262\255\277{\024\256G\341z\204\277\372~j\274t\223x\277333333\263\277L7\211A`\345\240?X9\264\310v\276\257\277j\274t\223\030\004\246?\313\241E\266\363\375\244?\372~j\274t\223\210\277\333\371~j\274t\243?\364\375\324x\351&\261?333333\263?{\024\256G\341z\204?;\337O\215\227n\202?\211A`\345\320\"\253?\311v\276\237\032/\255?\000\000\000\000\000\000\000\000\374\251\361\322Mb\220\277)\\\217\302\365(\254\277{\024\256G\341zt\277h\221\355|?5\276?\333\371~j\274t\243?\232\231\231\231\231\231\231\277\351&1\010\254\034\252?j\274t\223\030\004\246?X9\264\310v\276\237?{\024\256G\341zt?\311v\276\237\032/\255?\374\251\361\322Mbp\277{\024\256G\341zt?\374\251\361\322Mb`\277;\337O\215\227n\222\277\272I\014\002+\207\206?9\264\310v\276\237\212\277+\207\026\331\316\367\263\277\331\316\367S\343\245\233?;\337O\215\227n\222?\270\036\205\353Q\270\216\277\234\304 \260rh\221?\000\000\000\000\000\000\000\000\372~j\274t\223\210\277\234\304 \260rh\221\277\354Q\270\036\205\353\241?\354Q\270\036\205\353\261\277X9\264\310v\276\237?\374\251\361\322Mb`?\333\371~j\274t\263?{\024\256G\341z\224?\211A`\345\320\"\253\277J\014\002+\207\026\251\277\374\251\361\322Mb\200?9\264\310v\276\237\232?\234\304 \260rh\241\277\n\327\243p=\n\247\277\272I\014\002+\207\226?\331\316\367S\343\245\233?y\351&1\010\254\214\2779\264\310v\276\237\212\277;\337O\215\227n\202\277\374\251\361\322Mbp?Zd;\337O\215\247\277\331\316\367S\343\245\253\277\033/\335$\006\201\225?\372~j\274t\223\210?9\264\310v\276\237\212?;\337O\215\227n\222?y\351&1\010\254\214\277j\274t\223\030\004\246\277;\337O\215\227n\242\277y\351&1\010\254|\277{\024\256G\341z\224?X9\264\310v\276\237?\232\231\231\231\231\231\251\277\372~j\274t\223\210?\331\316\367S\343\245\253?y\351&1\010\254|\277\272I\014\002+\207\206\277Zd;\337O\215\247?T\343\245\233\304 \260?y\351&1\010\254\254?\311v\276\237\032/\255?\333\371~j\274t\243\277X9\264\310v\276\237\2771\010\254\034Zd\273?{\024\256G\341z\264\277\374\251\361\322Mb\200?y\351&1\010\254|?\372~j\274t\223\250?\374\251\361\322Mb\240\2779\264\310v\276\237\232\277\232\231\231\231\231\231\251?;\337O\215\227n\222?9\264\310v\276\237\212?\270\036\205\353Q\270\216?9\264\310v\276\237\232\277y\351&1\010\254|\277{\024\256G\341zt?\031\004V\016-\262\235?L7\211A`\345\260\277\033/\335$\006\201\245?\372~j\274t\223\230?\223\030\004V\016-\262?\031\004V\016-\262\235\277\374\251\361\322Mb\220?\252\361\322Mb\020\250?{\024\256G\341z\224?\331\316\367S\343\245\233\277\010\254\034Zd;\257\277\331\316\367S\343\245\233?J\014\002+\207\026\251?Zd;\337O\215\227?\234\304 \260rh\261\277;\337O\215\227n\222?y\351&1\010\254\234\277Zd;\337O\215\227?\270\036\205\353Q\270\216\277\213l\347\373\251\361\242\277\372~j\274t\223\210?\n\327\243p=\n\247\277\234\304 \260rh\221\277\033/\335$\006\201\225\277\000\000\000\000\000\000\000\000\272I\014\002+\207\266\277\031\004V\016-\262\235\277Zd;\337O\215\247\277J\014\002+\207\026\251\277y\351&1\010\254|?\244p=\n\327\243\260?\374\251\361\322Mb`\277{\024\256G\341z\204?\372~j\274t\223\210?{\024\256G\341z\204\277\260rh\221\355|\277\277\213l\347\373\251\361\242\277\333\371~j\274t\223\277\211A`\345\320\"\273\277j\274t\223\030\004\246\277y\351&1\010\254|?y\351&1\010\254\214\277\372~j\274t\223\250?{\024\256G\341z\224?{\024\256G\341zt?\010\254\034Zd;\257?\372~j\274t\223\230\277\372~j\274t\223\210?;\337O\215\227n\222?\272I\014\002+\207\226\277\374\251\361\322Mb`\277\372~j\274t\223\230?\232\231\231\231\231\231\251?\372~j\274t\223\230\277;\337O\215\227n\242\277\374\251\361\322Mb\220?\372~j\274t\223\250?\232\231\231\231\231\231\231\277\311v\276\237\032/\255?;\337O\215\227n\242\277\031\004V\016-\262\235?\331\316\367S\343\245\233\277\374\251\361\322Mb\200\277\372~j\274t\223x\277\033/\335$\006\201\225\277\374\251\361\322Mb`\277Zd;\337O\215\247?\n\327\243p=\n\247\277\372~j\274t\223\210\277\270\036\205\353Q\270\236?y\351&1\010\254\234?y\351&1\010\254|\277\374\251\361\322Mb\220\277\372~j\274t\223\210?{\024\256G\341z\264?\374\251\361\322Mbp?y\351&1\010\254\234?\213l\347\373\251\361\242?\033/\335$\006\201\225?{\024\256G\341z\224\277{\024\256G\341z\204?Zd;\337O\215\227\277\272I\014\002+\207\246\277\333\371~j\274t\223?P\215\227n\022\203\300?\311v\276\237\032/\255?y\351&1\010\254\214\277;\337O\215\227n\202?y\351&1\010\254|\277\033/\335$\006\201\245\277;\337O\215\227n\242\277\270\036\205\353Q\270\216?\203\300\312\241E\266\263\277\252\361\322Mb\020\250?{\024\256G\341z\204\277\031\004V\016-\262\235\277;\337O\215\227n\222\277b\020X9\264\310\266?X9\264\310v\276\237?\343\245\233\304 \260\262\277{\024\256G\341z\224\277\372~j\274t\223\210\277\323Mb\020X9\264\277\374\251\361\322Mb\260\277\351&1\010\254\034\252?\343\245\233\304 \260\262\277{\024\256G\341zt?\031\004V\016-\262\235\277y\351&1\010\254|?\374\251\361\322Mb`\277\033/\335$\006\201\225\2779\264\310v\276\237\232\2779\264\310v\276\237\232\277y\351&1\010\254\234?\333\371~j\274t\243\2779\264\310v\276\237\212\277;\337O\215\227n\242\2779\264\310v\276\237\212\277\234\304 \260rh\241?\374\251\361\322Mb`\277\374\251\361\322Mb\220\277\374\251\361\322Mb`?\270\036\205\353Q\270\216\277y\351&1\010\254\214\277Zd;\337O\215\227?\374\251\361\322Mb\200\277\354Q\270\036\205\353\241\277\270\036\205\353Q\270\236?\372~j\274t\223\250\277\000\000\000\000\000\000\000\000{\024\256G\341z\204?\351&1\010\254\034\252\277\270\036\205\353Q\270\216\277\372~j\274t\223x?\000\000\000\000\000\000\000\000\374\251\361\322Mb\240?\031\004V\016-\262\235?\372~j\274t\223x\277\333\371~j\274t\263\277)\\\217\302\365(\254?\374\251\361\322Mb\200?\374\251\361\322Mb`\277\033/\335$\006\201\225?\234\304 \260rh\221?L7\211A`\345\240\277\374\251\361\322Mb\200\277;\337O\215\227n\242\277\272I\014\002+\207\226?\374\251\361\322Mbp?\270\036\205\353Q\270\236\277\374\251\361\322Mb\220?\272I\014\002+\207\226?\372~j\274t\223\230\277\033/\335$\006\201\225?\234\304 \260rh\221?{\024\256G\341z\204?h\221\355|?5\256?\331\316\367S\343\245\233\277\354Q\270\036\205\353\241?\374\251\361\322Mbp\277\031\004V\016-\262\235\277\333\371~j\274t\223\277\372~j\274t\223\210\277\n\327\243p=\n\247\277;\337O\215\227n\222?Zd;\337O\215\267\277{\024\256G\341zt?\207\026\331\316\367S\303?\333\371~j\274t\223?;\337O\215\227n\242\277\000\000\000\000\000\000\000\000\211A`\345\320\"\253?\270\036\205\353Q\270\256\277\374\251\361\322Mb\240\277\033/\335$\006\201\225?\372~j\274t\223\250?\343\245\233\304 \260\262?;\337O\215\227n\242\277;\337O\215\227n\222?\272I\014\002+\207\206\277\033/\335$\006\201\225?{\024\256G\341zt\277\374\251\361\322Mbp?\374\251\361\322Mb`?\333\371~j\274t\243\277\311v\276\237\032/\255?\343\245\233\304 \260\262?;\337O\215\227n\242?\372~j\274t\223\210\277{\024\256G\341z\204\277;\337O\215\227n\202\277\272I\014\002+\207\206\2779\264\310v\276\237\212\277\252\361\322Mb\020\250?;\337O\215\227n\242\277Zd;\337O\215\227?;\337O\215\227n\202?\331\316\367S\343\245\233?\372~j\274t\223h\277;\337O\215\227n\202?\351&1\010\254\034\252\277\272I\014\002+\207\226\277\331\316\367S\343\245\233?y\351&1\010\254\214?\270\036\205\353Q\270\216\277Zd;\337O\215\227\277j\274t\223\030\004\246?\033/\335$\006\201\225?y\351&1\010\254\214\277\372~j\274t\223\210\277;\337O\215\227n\262?\234\304 \260rh\241?\272I\014\002+\207\246?;\337O\215\227n\242?\234\304 \260rh\261\277y\351&1\010\254\214\277\374\251\361\322Mb\200\277\000\000\000\000\000\000\000\000\374\251\361\322Mb`?\372~j\274t\223h?\372~j\274t\223x?\031\004V\016-\262\255?\333\371~j\274t\243?\372~j\274t\223x\277X9\264\310v\276\237\277\374\251\361\322Mb\220\277\033/\335$\006\201\245\277\372~j\274t\223x?\272I\014\002+\207\206?y\351&1\010\254\234\2779\264\310v\276\237\212\277\372~j\274t\223\210\277\270\036\205\353Q\270\216?\372~j\274t\223\210\277\372~j\274t\223\250\277\372~j\274t\223h\277;\337O\215\227n\222\277\372~j\274t\223h\277y\351&1\010\254\214\277D\213l\347\373\251\261\277\033/\335$\006\201\225\277\272I\014\002+\207\206\277+\207\026\331\316\367\243\277\374\251\361\322Mb\200\277y\351&1\010\254|?\372~j\274t\223\210?y\351&1\010\254\214?\372~j\274t\223\230?\000\000\000\000\000\000\000\000\270\036\205\353Q\270\256\277\272I\014\002+\207\206?\313\241E\266\363\375\244?y\351&1\010\254|?\270\036\205\353Q\270\216?y\351&1\010\254\214\277\234\304 \260rh\221?\010\254\034Zd;\257\277\333\371~j\274t\243?{\024\256G\341z\244\277h\221\355|?5\256?\343\245\233\304 \260\262\277\351&1\010\254\034\252\277\374\251\361\322Mb\240\277\031\004V\016-\262\235?L7\211A`\345\240?\354Q\270\036\205\353\241?\372~j\274t\223\230\277y\351&1\010\254|?L7\211A`\345\260?y\351&1\010\254\214?\031\004V\016-\262\235?\372~j\274t\223\250?\031\004V\016-\262\235\277\331\316\367S\343\245\233?\272I\014\002+\207\226\277y\351&1\010\254\214?\232\231\231\231\231\231\231?b\020X9\264\310\266\277\374\251\361\322Mb\220\277y\351&1\010\254\214\277\272I\014\002+\207\226?+\207\026\331\316\367\243?\333\371~j\274t\223?\372~j\274t\223x\277\234\304 \260rh\241\277\372~j\274t\223\210?Zd;\337O\215\247\277\372~j\274t\223\210\277L7\211A`\345\240?\331\316\367S\343\245\233?\213l\347\373\251\361\242?\272I\014\002+\207\206\277y\351&1\010\254\214\277;\337O\215\227n\202?\331\316\367S\343\245\233\277y\351&1\010\254|\277\033/\335$\006\201\245?\374\251\361\322Mb\220?\213l\347\373\251\361\242\277\374\251\361\322Mb`?\372~j\274t\223x?\313\241E\266\363\375\264?\234\304 \260rh\221?J\014\002+\207\026\251\277\374\251\361\322Mbp\277\354Q\270\036\205\353\261\277\333\371~j\274t\223\277\372~j\274t\223x?\313\241E\266\363\375\244\277\234\304 \260rh\241\277{\024\256G\341zt?\234\304 \260rh\241?9\264\310v\276\237\252\277\333\371~j\274t\223\277\232\231\231\231\231\231\231\277\372~j\274t\223\250?\374\251\361\322Mb\220\277L7\211A`\345\240\277\372~j\274t\223\210\277\000\000\000\000\000\000\000\000j\274t\223\030\004\246\277\372~j\274t\223\230?\374\251\361\322Mbp?Zd;\337O\215\227\277\333\371~j\274t\243\277y\351&1\010\254\234?\372~j\274t\223\230?\372~j\274t\223x\277\211A`\345\320\"\253?\000\000\000\000\000\000\000\000\232\231\231\231\231\231\231\277y\351&1\010\254\254\277\333\371~j\274t\223\277\234\304 \260rh\221\277y\351&1\010\254|\277;\337O\215\227n\222\277\374\251\361\322Mb`\277\234\304 \260rh\221\277\213l\347\373\251\361\242?\364\375\324x\351&\261?\000\000\000\000\000\000\000\000\252\361\322Mb\020\270\277\372~j\274t\223x\277\333\371~j\274t\223?\270\036\205\353Q\270\236\277X9\264\310v\276\237?B`\345\320\"\333\271?h\221\355|?5\256\277\031\004V\016-\262\235?;\337O\215\227n\242?X9\264\310v\276\237?\372~j\274t\223\210\277y\351&1\010\254|?+\207\026\331\316\367\263\277\374\251\361\322Mb\300?\374\251\361\322Mb\220\277\333\371~j\274t\223?\333\371~j\274t\243?\232\231\231\231\231\231\231\277\374\251\361\322Mb`?\213l\347\373\251\361\242\277\333\371~j\274t\223?)\\\217\302\365(\254\277\374\251\361\322Mb\220?\372~j\274t\223x\277y\351&1\010\254\214\277{\024\256G\341z\204\277\372~j\274t\223\210\277J\014\002+\207\026\251\277\374\251\361\322Mbp\277\374\251\361\322Mb`\277Zd;\337O\215\227\277{\024\256G\341z\224\277\n\327\243p=\n\247\277\354Q\270\036\205\353\261?\000\000\000\000\000\000\000\000\372~j\274t\223h\277\333\371~j\274t\223?X9\264\310v\276\237?\372~j\274t\223x\277\374\251\361\322Mb\220?\270\036\205\353Q\270\216?{\024\256G\341z\264?\374\251\361\322Mb\220?y\351&1\010\254|?\374\251\361\322Mb\260?\372~j\274t\223\210?\374\251\361\322Mb\200\277\374\251\361\322Mb`\277\270\036\205\353Q\270\236\277\272I\014\002+\207\206\277\232\231\231\231\231\231\251\277\374\251\361\322Mb\220?{\024\256G\341zt\277\234\304 \260rh\241?{\024\256G\341z\224?\272I\014\002+\207\206?\232\231\231\231\231\231\231?\374\251\361\322Mbp\277;\337O\215\227n\242\277y\351&1\010\254|?;\337O\215\227n\202?\374\251\361\322Mbp?+\207\026\331\316\367\243?\252\361\322Mb\020\250\277\372~j\274t\223\230?\272I\014\002+\207\206\277\033/\335$\006\201\225?\331\316\367S\343\245\233?\000\000\000\000\000\000\000\000\374\251\361\322Mb`\277{\024\256G\341z\224?J\014\002+\207\026\251?L7\211A`\345\240\277{\024\256G\341z\224\277\211A`\345\320\"\253\277\374\251\361\322Mb`?y\351&1\010\254\214?y\351&1\010\254|\277Zd;\337O\215\227\277\000\000\000\000\000\000\000\000\372~j\274t\223\230\277L7\211A`\345\240\277\234\304 \260rh\221\277;\337O\215\227n\222?\033/\335$\006\201\225?\270\036\205\353Q\270\216\2779\264\310v\276\237\232\277y\351&1\010\254|\277\331\316\367S\343\245\233?\374\251\361\322Mb\200\277;\337O\215\227n\222\277{\024\256G\341zt\277;\337O\215\227n\242\277\272I\014\002+\207\226\277{\024\256G\341zt\277\000\000\000\000\000\000\000\000\211A`\345\320\"\253\277\252\361\322Mb\020\250\277\372~j\274t\223h?\374\251\361\322Mb\200\277\213l\347\373\251\361\242?\244p=\n\327\243\260\277y\351&1\010\254\214?\372~j\274t\223x?\031\004V\016-\262\235\277333333\263?\272I\014\002+\207\226?\372~j\274t\223\210?\234\304 \260rh\221?\372~j\274t\223h\277L7\211A`\345\240\277\234\304 \260rh\221\277\031\004V\016-\262\235?\232\231\231\231\231\231\251?\354Q\270\036\205\353\241\277+\207\026\331\316\367\243?\333\371~j\274t\243\277\272I\014\002+\207\226?X9\264\310v\276\237?\372~j\274t\223x?\374\251\361\322Mbp\277y\351&1\010\254|?\232\231\231\231\231\231\251\277\333\371~j\274t\243\277y\351&1\010\254|\2779\264\310v\276\237\252?9\264\310v\276\237\252\277\372~j\274t\223\210?X9\264\310v\276\237\277\372~j\274t\223\210\277X9\264\310v\276\257\277;\337O\215\227n\202?\234\304 \260rh\221?{\024\256G\341z\204\277\000\000\000\000\000\000\000\000\372~j\274t\223\230?\232\231\231\231\231\231\251?\333\371~j\274t\243?\213l\347\373\251\361\262?\031\004V\016-\262\255?{\024\256G\341zt\277\n\327\243p=\n\267\277y\351&1\010\254|\277y\351&1\010\254\234\277\372~j\274t\223\210?9\264\310v\276\237\252\277\033/\335$\006\201\225?Zd;\337O\215\227\277;\337O\215\227n\202?\372~j\274t\223\230?\272I\014\002+\207\266\277\372~j\274t\223\250?Zd;\337O\215\247\277\351&1\010\254\034\252?\374\251\361\322Mbp\277\374\251\361\322Mb\200\277\272I\014\002+\207\226?;\337O\215\227n\202\2779\264\310v\276\237\212?{\024\256G\341z\204?\010\254\034Zd;\257\277)\\\217\302\365(\254\277\270\036\205\353Q\270\236?\232\231\231\231\231\231\231\277\333\371~j\274t\243\277\031\004V\016-\262\235?\331\316\367S\343\245\233?\374\251\361\322Mb`?\313\241E\266\363\375\244\277\323Mb\020X9\264\277\232\231\231\231\231\231\231?X9\264\310v\276\237?\372~j\274t\223x?\372~j\274t\223\270?\000\000\000\000\000\000\000\000;\337O\215\227n\202?9\264\310v\276\237\212?\234\304 \260rh\261\277y\351&1\010\254\214?y\351&1\010\254\234?\272I\014\002+\207\226?{\024\256G\341z\224\277\031\004V\016-\262\235\277\010\254\034Zd;\257?\372~j\274t\223\210\277\372~j\274t\223h\277Zd;\337O\215\227\277\033/\335$\006\201\225?{\024\256G\341zt?\313\241E\266\363\375\244?\272I\014\002+\207\206?\252\361\322Mb\020\250?\372~j\274t\223\230\277;\337O\215\227n\202\277y\351&1\010\254|?y\351&1\010\254\214\277;\337O\215\227n\222?9\264\310v\276\237\252\277X9\264\310v\276\237?\010\254\034Zd;\257?j\274t\223\030\004\246?\272I\014\002+\207\226?{\024\256G\341z\204\277\372~j\274t\223\250?T\343\245\233\304 \260\277y\351&1\010\254|?\333\371~j\274t\263\277Zd;\337O\215\227\277j\274t\223\030\004\246?\333\371~j\274t\243?Zd;\337O\215\247?\372~j\274t\223\250\277\000\000\000\000\000\000\000\000+\207\026\331\316\367\243?\372~j\274t\223\210?\372~j\274t\223x?y\351&1\010\254\234\277\031\004V\016-\262\235\277\372~j\274t\223\230\277\313\241E\266\363\375\244\277\234\304 \260rh\221\277\311v\276\237\032/\255\277\234\304 \260rh\241?\272I\014\002+\207\246?\270\036\205\353Q\270\216\277{\024\256G\341z\224\277y\351&1\010\254|\277X9\264\310v\276\237?\374\251\361\322Mb\220\277j\274t\223\030\004\246\2779\264\310v\276\237\232\277\031\004V\016-\262\235\277\232\231\231\231\231\231\231?\234\304 \260rh\241?y\351&1\010\254\234?\232\231\231\231\231\231\231\277\270\036\205\353Q\270\216\277\372~j\274t\223\230\277{\024\256G\341zt?\033/\335$\006\201\225?{\024\256G\341z\204?J\014\002+\207\026\271\277\232\231\231\231\231\231\231?\372~j\274t\223x?\033/\335$\006\201\265\2779\264\310v\276\237\232\277\374\251\361\322Mb\200?\234\304 \260rh\221?\374\251\361\322Mb\200\277\374\251\361\322Mbp\277\031\004V\016-\262\235?{\024\256G\341z\224\277L7\211A`\345\240\277\374\251\361\322Mb\240?\372~j\274t\223x?\333\371~j\274t\243?;\337O\215\227n\202?\374\251\361\322MbP\277\234\304 \260rh\221\2779\264\310v\276\237\232?\374\251\361\322Mb\200?\374\251\361\322Mb`\277\372~j\274t\223x\277\331\316\367S\343\245\253?9\264\310v\276\237\212\277y\351&1\010\254\214\277;\337O\215\227n\202\277\374\251\361\322Mb`?y\351&1\010\254|\2779\264\310v\276\237\232?X9\264\310v\276\237?\033/\335$\006\201\225\277;\337O\215\227n\222\277\272I\014\002+\207\226\277\234\304 \260rh\221\277;\337O\215\227n\222?\031\004V\016-\262\235?Zd;\337O\215\227?\234\304 \260rh\241?\374\251\361\322Mb\240\277y\351&1\010\254\214\277{\024\256G\341zt\277y\351&1\010\254\234?\000\000\000\000\000\000\000\000\000\000\000\000\000\000\000\000\333\371~j\274t\243?\372~j\274t\223\210?\272I\014\002+\207\246\277\234\304 \260rh\221\277\270\036\205\353Q\270\236?\351&1\010\254\034\252?\374\251\361\322Mbp?\232\231\231\231\231\231\231?\313\241E\266\363\375\244\277\000\000\000\000\000\000\000\000{\024\256G\341z\224\277Zd;\337O\215\227\2779\264\310v\276\237\232?9\264\310v\276\237\212\277\333\371~j\274t\223?\374\251\361\322Mb\240\277{\024\256G\341zt?Zd;\337O\215\247?\000\000\000\000\000\000\000\000y\351&1\010\254|?;\337O\215\227n\222\277\374\251\361\322Mb`?\374\251\361\322MbP\277\272I\014\002+\207\246\277\364\375\324x\351&\261?X9\264\310v\276\237?y\351&1\010\254|?;\337O\215\227n\202\277{\024\256G\341z\224?y\351&1\010\254\214?\234\304 \260rh\261?\354Q\270\036\205\353\241\277\331\316\367S\343\245\233\277\354Q\270\036\205\353\241?\033/\335$\006\201\225?\333\371~j\274t\243\277+\207\026\331\316\367\243\277\351&1\010\254\034\252\277;\337O\215\227n\222?9\264\310v\276\237\232?\203\300\312\241E\266\263?\232\231\231\231\231\231\231?y\351&1\010\254\214\277\000\000\000\000\000\000\000\000\374\251\361\322Mb`?\272I\014\002+\207\226?\311v\276\237\032/\255\277{\024\256G\341zt?\000\000\000\000\000\000\000\000\232\231\231\231\231\231\231\277y\351&1\010\254\214\277\372~j\274t\223h\277\374\251\361\322Mb`\277\374\251\361\322Mbp?\331\316\367S\343\245\233?\374\251\361\322Mbp?\234\304 \260rh\241?\372~j\274t\223\210\277\333\371~j\274t\243?+\207\026\331\316\367\243?\372~j\274t\223\210?\374\251\361\322Mb\240?y\351&1\010\254\214\277\372~j\274t\223\230?\333\371~j\274t\223\277\000\000\000\000\000\000\000\000\252\361\322Mb\020\250?;\337O\215\227n\242?{\024\256G\341z\224?\031\004V\016-\262\235\277\323Mb\020X9\264?\272I\014\002+\207\206\277\234\304 \260rh\221?\033/\335$\006\201\225\277\252\361\322Mb\020\270\277;\337O\215\227n\222\277\374\251\361\322Mb\220\277{\024\256G\341z\224?\000\000\000\000\000\000\000\0009\264\310v\276\237\252?j\274t\223\030\004\246\277\372~j\274t\223\230\277X9\264\310v\276\237\277y\351&1\010\254\214?{\024\256G\341z\244?q=\n\327\243p\275?\270\036\205\353Q\270\216\277\333\371~j\274t\223\277\213l\347\373\251\361\242?\374\251\361\322Mb\240?\234\304 \260rh\221\277\354Q\270\036\205\353\241?Zd;\337O\215\227\277h\221\355|?5\256?\372~j\274t\223x\2779\264\310v\276\237\252?\272I\014\002+\207\226?\n\327\243p=\n\247?\374\251\361\322Mb\200\277\232\231\231\231\231\231\231?;\337O\215\227n\222\277y\351&1\010\254|?\372~j\274t\223\230\277\232\231\231\231\231\231\231\277\234\304 \260rh\221\277\234\304 \260rh\221?\333\371~j\274t\243?\331\316\367S\343\245\233?{\024\256G\341z\204\277\031\004V\016-\262\255\277\372~j\274t\223\210\277\374\251\361\322Mb\220?\372~j\274t\223\250?\374\251\361\322Mb\200\277\234\304 \260rh\221?Zd;\337O\215\227?\374\251\361\322Mb\220\277y\351&1\010\254\214\277y\351&1\010\254\214\277y\351&1\010\254\214\277\374\251\361\322Mbp?\333\371~j\274t\223\277\333\371~j\274t\263\277\211A`\345\320\"\253?{\024\256G\341z\224?\270\036\205\353Q\270\236\277\031\004V\016-\262\235\277j\274t\223\030\004\246\277\313\241E\266\363\375\244\277y\351&1\010\254\254\277\031\004V\016-\262\255\277{\024\256G\341z\224?X9\264\310v\276\237?\270\036\205\353Q\270\236?\333\371~j\274t\243\2779\264\310v\276\237\212\277\372~j\274t\223h\277\374\251\361\322Mb\240?y\351&1\010\254|\277\374\251\361\322Mbp?{\024\256G\341z\244\277\272I\014\002+\207\206\277+\207\026\331\316\367\243?\333\371~j\274t\223\277\272I\014\002+\207\206\277\234\304 \260rh\261?\232\231\231\231\231\231\231\2779\264\310v\276\237\232\277\000\000\000\000\000\000\000\0009\264\310v\276\237\212\277Zd;\337O\215\227\277\232\231\231\231\231\231\251?\333\371~j\274t\243\277{\024\256G\341z\264?;\337O\215\227n\202\277\272I\014\002+\207\246\277333333\263\277\002+\207\026\331\316\267?\270\036\205\353Q\270\236?L7\211A`\345\240\277\234\304 \260rh\241?\272I\014\002+\207\206\277\270\036\205\353Q\270\216?y\351&1\010\254|?\270\036\205\353Q\270\216?\354Q\270\036\205\353\241\277\270\036\205\353Q\270\236\277\272I\014\002+\207\226?\270\036\205\353Q\270\216?\270\036\205\353Q\270\236\277y\351&1\010\254\214\277\374\251\361\322Mb\200?9\264\310v\276\237\212\277\232\231\231\231\231\231\231?\033/\335$\006\201\225\277\351&1\010\254\034\272?y\351&1\010\254|?\333\371~j\274t\223?y\351&1\010\254\214?;\337O\215\227n\202\277L7\211A`\345\240\277y\351&1\010\254\214?\232\231\231\231\231\231\231\277\374\251\361\322Mbp\277\331\316\367S\343\245\233\277y\351&1\010\254|\277\374\251\361\322Mb\200\2779\264\310v\276\237\212\277;\337O\215\227n\222?y\351&1\010\254\214?\374\251\361\322Mb\240?\232\231\231\231\231\231\251?Zd;\337O\215\247\277\000\000\000\000\000\000\000\000\000\000\000\000\000\000\000\000\311v\276\237\032/\255\277\000\000\000\000\000\000\000\000\000\000\000\000\000\000\000\000\374\251\361\322Mb`?\272I\014\002+\207\206\277\232\231\231\231\231\231\231?\374\251\361\322Mbp\277{\024\256G\341zt\277\033/\335$\006\201\245\277y\351&1\010\254|\277\270\036\205\353Q\270\216\277\372~j\274t\223\230?y\351&1\010\254|?y\351&1\010\254|?\213l\347\373\251\361\242\277\213l\347\373\251\361\242\277;\337O\215\227n\242?\372~j\274t\223\250?\374\251\361\322Mb\220\277\213l\347\373\251\361\242\277\331\316\367S\343\245\233?\333\371~j\274t\263\277\000\000\000\000\000\000\000\000\000\000\000\000\000\000\000\000\272I\014\002+\207\226\277\374\251\361\322Mb`?y\351&1\010\254\214?\031\004V\016-\262\255?{\024\256G\341z\204?\n\327\243p=\n\247?\331\316\367S\343\245\233\277;\337O\215\227n\222\277\372~j\274t\223\210\277y\351&1\010\254\254\277\374\251\361\322Mb\220\277J\014\002+\207\026\251?\270\036\205\353Q\270\216\277{\024\256G\341z\244\277\272I\014\002+\207\246\277\372~j\274t\223x?9\264\310v\276\237\212\277;\337O\215\227n\202?9\264\310v\276\237\212?)\\\217\302\365(\254\277\232\231\231\231\231\231\251\277{\024\256G\341zt?y\351&1\010\254|?\270\036\205\353Q\270\236?\234\304 \260rh\241?\372~j\274t\223\250?9\264\310v\276\237\232?{\024\256G\341z\224?\000\000\000\000\000\000\000\000\374\251\361\322Mb`\277\374\251\361\322Mbp\277y\351&1\010\254\214\277{\024\256G\341z\204?\252\361\322Mb\020\250?y\351&1\010\254|\277\372~j\274t\223\250?y\351&1\010\254\214\277\333\371~j\274t\223?\374\251\361\322Mb\220\277\232\231\231\231\231\231\231\277{\024\256G\341z\224?\372~j\274t\223x\277{\024\256G\341z\204?;\337O\215\227n\222?\374\251\361\322Mbp?\374\251\361\322Mb\200\277\234\304 \260rh\221?\000\000\000\000\000\000\000\0009\264\310v\276\237\212?y\351&1\010\254\214?\211A`\345\320\"\253\277#\333\371~j\274\264\277y\351&1\010\254|?\272I\014\002+\207\246\277X9\264\310v\276\237?\374\251\361\322Mb\200?\374\251\361\322Mbp?\372~j\274t\223\210\277y\351&1\010\254\274?\031\004V\016-\262\235\277;\337O\215\227n\202?;\337O\215\227n\222\277\374\251\361\322Mb\220?\333\371~j\274t\243\277{\024\256G\341z\244?\333\371~j\274t\223?D\213l\347\373\251\261\277\372~j\274t\223h\277\372~j\274t\223\230\277\331\316\367S\343\245\253?\211A`\345\320\"\253\277{\024\256G\341z\224\277\354Q\270\036\205\353\261\277\313\241E\266\363\375\244\277\234\304 \260rh\221?\374\251\361\322Mb\200\277Zd;\337O\215\247\277L7\211A`\345\240\277Zd;\337O\215\227\2779\264\310v\276\237\212?\234\304 \260rh\221\277\374\251\361\322Mbp?\272I\014\002+\207\206\277;\337O\215\227n\222\277;\337O\215\227n\202?{\024\256G\341z\224?\010\254\034Zd;\257\277\211A`\345\320\"\253\277\372~j\274t\223\230\277\031\004V\016-\262\255?\374\251\361\322Mb\240\277{\024\256G\341z\224\2779\264\310v\276\237\232\277\351&1\010\254\034\252\277J\014\002+\207\026\271?\372~j\274t\223\230?9\264\310v\276\237\232\277;\337O\215\227n\222\277;\337O\215\227n\222?\364\375\324x\351&\261?\333\371~j\274t\223\2779\264\310v\276\237\232?\223\030\004V\016-\262?\313\241E\266\363\375\244?\272I\014\002+\207\206?\374\251\361\322MbP\277\232\231\231\231\231\231\231?\364\375\324x\351&\261?{\024\256G\341z\204\277\272I\014\002+\207\226?\211A`\345\320\"\253?\331\316\367S\343\245\253\277\211A`\345\320\"\253\277\033/\335$\006\201\245?\374\251\361\322Mb`\277y\351&1\010\254|?\033/\335$\006\201\225?\374\251\361\322Mbp\277;\337O\215\227n\242\277\311v\276\237\032/\255?\374\251\361\322Mb\240?j\274t\223\030\004\266?Zd;\337O\215\227?\331\316\367S\343\245\253\277\033/\335$\006\201\225\2779\264\310v\276\237\232\277{\024\256G\341zt?\372~j\274t\223\210?y\351&1\010\254\214\277;\337O\215\227n\242?\372~j\274t\223\210\277\033/\335$\006\201\225\277\333\371~j\274t\223?;\337O\215\227n\202\277\234\304 \260rh\241\277\272I\014\002+\207\226?\333\371~j\274t\243\277\354Q\270\036\205\353\261\277;\337O\215\227n\242?\354Q\270\036\205\353\241\277y\351&1\010\254\234\277\000\000\000\000\000\000\000\0009\264\310v\276\237\212\277;\337O\215\227n\242\277\372~j\274t\223\210?\372~j\274t\223\230?)\\\217\302\365(\254?D\213l\347\373\251\261?;\337O\215\227n\222?\234\304 \260rh\221?{\024\256G\341zt?9\264\310v\276\237\212?\000\000\000\000\000\000\000\000\232\231\231\231\231\231\231\277\374\251\361\322Mb\200\277\232\231\231\231\231\231\231\277;\337O\215\227n\202\277Zd;\337O\215\227?\000\000\000\000\000\000\000\000\272I\014\002+\207\206?{\024\256G\341z\204\2779\264\310v\276\237\212?\000\000\000\000\000\000\000\000\374\251\361\322Mb\200\277\000\000\000\000\000\000\000\000;\337O\215\227n\242\277\374\251\361\322Mb`\277\351&1\010\254\034\252?\232\231\231\231\231\231\251?{\024\256G\341zt?\270\036\205\353Q\270\216?\374\251\361\322Mbp\277{\024\256G\341z\244?y\351&1\010\254|?{\024\256G\341zt?\364\375\324x\351&\261?\270\036\205\353Q\270\216?#\333\371~j\274\264?{\024\256G\341zt?{\024\256G\341z\244?y\351&1\010\254\254?\031\004V\016-\262\235\277Zd;\337O\215\247?)\\\217\302\365(\254?\311v\276\237\032/\255\277{\024\256G\341z\224\277{\024\256G\341z\224\277\327\243p=\n\327\303?\372~j\274t\223\210\277;\337O\215\227n\202\277\372~j\274t\223\210\277;\337O\215\227n\202?\374\251\361\322Mbp?j\274t\223\030\004\246\277\374\251\361\322Mbp?\331\316\367S\343\245\233\277\234\304 \260rh\221?\000\000\000\000\000\000\000\000\374\251\361\322Mb`\277j\274t\223\030\004\246\277\213l\347\373\251\361\262\277Zd;\337O\215\267?;\337O\215\227n\242?\031\004V\016-\262\235\277\351&1\010\254\034\252?\372~j\274t\223\230?\272I\014\002+\207\246?\211A`\345\320\"\253?\232\231\231\231\231\231\231\277\372~j\274t\223h?9\264\310v\276\237\212?\272I\014\002+\207\226?\311v\276\237\032/\255?J\014\002+\207\026\251?\372~j\274t\223x\277;\337O\215\227n\202?\372~j\274t\223\210\277\234\304 \260rh\241\277{\024\256G\341z\224\277+\207\026\331\316\367\243?\234\304 \260rh\221?\331\316\367S\343\245\233\277y\351&1\010\254\254?{\024\256G\341z\264\277{\024\256G\341z\244\277+\207\026\331\316\367\243?9\264\310v\276\237\252\277\374\251\361\322Mbp?y\351&1\010\254\234?+\207\026\331\316\367\243\277;\337O\215\227n\242\277;\337O\215\227n\202\277\234\304 \260rh\241?\331\316\367S\343\245\253\277j\274t\223\030\004\246?\000\000\000\000\000\000\000\000{\024\256G\341zt?\313\241E\266\363\375\244\277\211A`\345\320\"\253\277\000\000\000\000\000\000\000\000\372~j\274t\223x?\374\251\361\322Mb`\277\354Q\270\036\205\353\241\277\331\316\367S\343\245\233\277\372~j\274t\223x?\272I\014\002+\207\206\277\374\251\361\322Mb\200\277\354Q\270\036\205\353\241?\232\231\231\231\231\231\231\277;\337O\215\227n\222?\372~j\274t\223\230?;\337O\215\227n\222?{\024\256G\341zt?\031\004V\016-\262\235?y\351&1\010\254\214?\372~j\274t\223\250?\354Q\270\036\205\353\241?\234\304 \260rh\221?\331\316\367S\343\245\233?\374\251\361\322Mb`\277\374\251\361\322Mb\200?\374\251\361\322Mb\220?\000\000\000\000\000\000\000\000L7\211A`\345\240?\234\304 \260rh\221\277L7\211A`\345\240\277\372~j\274t\223\230?y\351&1\010\254\214?\372~j\274t\223\230?\333\371~j\274t\243\277y\351&1\010\254|?\331\316\367S\343\245\233\277;\337O\215\227n\222\277T\343\245\233\304 \260?{\024\256G\341z\204?\211A`\345\320\"\253\277;\337O\215\227n\222?j\274t\223\030\004\246\277\311v\276\237\032/\255\277;\337O\215\227n\222\277+\207\026\331\316\367\243\277\374\251\361\322Mb\220\277\374\251\361\322Mb\240\277\331\316\367S\343\245\253\277\372~j\274t\223x\277y\351&1\010\254|\277\372~j\274t\223x\277{\024\256G\341z\224\277\244p=\n\327\243\260\277{\024\256G\341zt?\374\251\361\322Mb\240?\343\245\233\304 \260\262\277{\024\256G\341z\204?\372~j\274t\223\210\277\374\251\361\322Mb\200?y\351&1\010\254\234?\372~j\274t\223\250?;\337O\215\227n\202\277;\337O\215\227n\222?\333\371~j\274t\223\277X9\264\310v\276\237\277\272I\014\002+\207\206?Zd;\337O\215\247?\033/\335$\006\201\225?\033/\335$\006\201\245?\234\304 \260rh\221\277\372~j\274t\223\210?;\337O\215\227n\202?\331\316\367S\343\245\233\277\374\251\361\322Mb\220\277\331\316\367S\343\245\233?)\\\217\302\365(\254?\213l\347\373\251\361\242\277y\351&1\010\254\234\277\372~j\274t\223x\277\351&1\010\254\034\252\277\372~j\274t\223\250?\364\375\324x\351&\261?y\351&1\010\254\214?y\351&1\010\254\234\277\372~j\274t\223\230?X9\264\310v\276\237?\374\251\361\322Mb\240?\000\000\000\000\000\000\000\000\374\251\361\322Mb\200\277\333\371~j\274t\223?\374\251\361\322Mb\220?y\351&1\010\254\214?\234\304 \260rh\241?{\024\256G\341z\224?\272I\014\002+\207\226?Zd;\337O\215\227?\372~j\274t\223\210\277\372~j\274t\223\210?\374\251\361\322Mb\220?\372~j\274t\223\210\2779\264\310v\276\237\212?y\351&1\010\254\214\277\374\251\361\322Mb\240?\333\371~j\274t\223?\333\371~j\274t\243\277y\351&1\010\254|\277\272I\014\002+\207\226?\354Q\270\036\205\353\241\277\000\000\000\000\000\000\000\000j\274t\223\030\004\246?\372~j\274t\223h\277\313\241E\266\363\375\244\277y\351&1\010\254|?{\024\256G\341zt\277\232\231\231\231\231\231\231\277\372~j\274t\223x?;\337O\215\227n\222\277\272I\014\002+\207\226\277{\024\256G\341z\204?\213l\347\373\251\361\242?\213l\347\373\251\361\242?\232\231\231\231\231\231\251\277\374\251\361\322Mb`\277\270\036\205\353Q\270\216\277\000\000\000\000\000\000\000\000{\024\256G\341z\244?{\024\256G\341z\204?\372~j\274t\223\210?\270\036\205\353Q\270\216\277y\351&1\010\254\214\277\270\036\205\353Q\270\236\277\374\251\361\322Mb`?\232\231\231\231\231\231\251?\333\371~j\274t\243\277;\337O\215\227n\242?\354Q\270\036\205\353\241\277\374\251\361\322Mb`\277\333\371~j\274t\223\2779\264\310v\276\237\232\277\244p=\n\327\243\260\277\n\327\243p=\n\247?y\351&1\010\254\214\277\372~j\274t\223\210\277y\351&1\010\254\214?\372~j\274t\223x?\354Q\270\036\205\353\261\277{\024\256G\341z\224\277\272I\014\002+\207\246?\211A`\345\320\"\253\277\374\251\361\322MbP\277{\024\256G\341z\204?y\351&1\010\254|\277\270\036\205\353Q\270\216\277\374\251\361\322Mb`\277\033/\335$\006\201\225?L7\211A`\345\240\277y\351&1\010\254\214?\000\000\000\000\000\000\000\000y\351&1\010\254\214\277{\024\256G\341z\244\277y\351&1\010\254\214\277D\213l\347\373\251\261?\374\251\361\322Mbp\277y\351&1\010\254\214?9\264\310v\276\237\212\277;\337O\215\227n\202?;\337O\215\227n\222?;\337O\215\227n\242?\374\251\361\322Mb\240?\n\327\243p=\n\247?;\337O\215\227n\242?\372~j\274t\223\270?j\274t\223\030\004\246\277j\274t\223\030\004\246?\354Q\270\036\205\353\241?\270\036\205\353Q\270\236\277y\351&1\010\254\234?\331\316\367S\343\245\233?;\337O\215\227n\202\2779\264\310v\276\237\212\277{\024\256G\341z\204?{\024\256G\341z\264\277{\024\256G\341z\224?{\024\256G\341z\204\2779\264\310v\276\237\212\2779\264\310v\276\237\212?\313\241E\266\363\375\244?\374\251\361\322Mb`\277\374\251\361\322Mb\220?\033/\335$\006\201\225?9\264\310v\276\237\232\277y\351&1\010\254\214?\374\251\361\322MbP?\311v\276\237\032/\255\277L7\211A`\345\240?\374\251\361\322Mb`\277\270\036\205\353Q\270\216\277y\351&1\010\254\214\277\031\004V\016-\262\235?;\337O\215\227n\202\277;\337O\215\227n\202?\234\304 \260rh\241?\272I\014\002+\207\206\277\234\304 \260rh\221?b\020X9\264\310\266?9\264\310v\276\237\232?\270\036\205\353Q\270\216\277\272I\014\002+\207\226\277Zd;\337O\215\247?\343\245\233\304 \260\262?;\337O\215\227n\262?\351&1\010\254\034\252\277L7\211A`\345\240?\333\371~j\274t\223\277\000\000\000\000\000\000\000\000\270\036\205\353Q\270\216?L7\211A`\345\240\277\270\036\205\353Q\270\256?X9\264\310v\276\237\277\331\316\367S\343\245\253?\372~j\274t\223x?y\351&1\010\254|\277;\337O\215\227n\242?\203\300\312\241E\266\263\277;\337O\215\227n\242?j\274t\223\030\004\266?\234\304 \260rh\221\277;\337O\215\227n\202?;\337O\215\227n\242\277\033/\335$\006\201\225?9\264\310v\276\237\232?\354Q\270\036\205\353\241?Zd;\337O\215\247\277\002+\207\026\331\316\267\277\234\304 \260rh\221?\333\371~j\274t\223?\n\327\243p=\n\247\277\234\304 \260rh\221\277\364\375\324x\351&\261?\354Q\270\036\205\353\241?y\351&1\010\254|?Zd;\337O\215\267\277y\351&1\010\254\254\277y\351&1\010\254\214\277\374\251\361\322Mb\220?\311v\276\237\032/\255?\244p=\n\327\243\260\277\372~j\274t\223\230\277\232\231\231\231\231\231\231?{\024\256G\341z\204?{\024\256G\341z\204?y\351&1\010\254\214\277\313\241E\266\363\375\244?\234\304 \260rh\221\277\020X9\264\310v\276?;\337O\215\227n\222\277\331\316\367S\343\245\253\2779\264\310v\276\237\212\277\272I\014\002+\207\206?\031\004V\016-\262\235\2779\264\310v\276\237\212?\270\036\205\353Q\270\216?\232\231\231\231\231\231\251?\234\304 \260rh\221?\374\251\361\322Mbp?;\337O\215\227n\242?)\\\217\302\365(\254?\374\251\361\322MbP?\372~j\274t\223\210\277\000\000\000\000\000\000\000\000\031\004V\016-\262\255?\033/\335$\006\201\265\277\272I\014\002+\207\206\277\374\251\361\322Mbp\277;\337O\215\227n\202\277+\207\026\331\316\367\243?\270\036\205\353Q\270\236?X9\264\310v\276\237\277\374\251\361\322Mb\220\277\232\231\231\231\231\231\231?\031\004V\016-\262\235\277{\024\256G\341z\204?\374\251\361\322Mb\240\277\n\327\243p=\n\247\277{\024\256G\341z\204?y\351&1\010\254\214?\372~j\274t\223\250?\354Q\270\036\205\353\241?\010\254\034Zd;\257\277\272I\014\002+\207\246?\333\371~j\274t\223?\270\036\205\353Q\270\236?X9\264\310v\276\257\277\374\251\361\322Mb`\277j\274t\223\030\004\246\277{\024\256G\341z\224?y\351&1\010\254\234\277\232\231\231\231\231\231\251?\333\371~j\274t\243\277J\014\002+\207\026\251\277L7\211A`\345\240\277\374\251\361\322Mb\220\277y\351&1\010\254\234?\272I\014\002+\207\226\277X9\264\310v\276\237?y\351&1\010\254\234?\223\030\004V\016-\262?Zd;\337O\215\247\277;\337O\215\227n\222?\232\231\231\231\231\231\231?)\\\217\302\365(\254?)\\\217\302\365(\254\277+\207\026\331\316\367\263?\374\251\361\322Mb\200?\372~j\274t\223\210?y\351&1\010\254\214?333333\263?;\337O\215\227n\202\277{\024\256G\341zt\277j\274t\223\030\004\246\277;\337O\215\227n\202?Zd;\337O\215\227\277y\351&1\010\254\214\277\213l\347\373\251\361\242?\372~j\274t\223\230?\234\304 \260rh\221\277\374\251\361\322Mb\200\277{\024\256G\341z\224\2779\264\310v\276\237\212?;\337O\215\227n\222\277\270\036\205\353Q\270\216\277\374\251\361\322Mb\220\2779\264\310v\276\237\212\277\372~j\274t\223\210?\354Q\270\036\205\353\261?\031\004V\016-\262\255\277\033/\335$\006\201\225?;\337O\215\227n\222\277\374\251\361\322Mb\200?X9\264\310v\276\237?\270\036\205\353Q\270\256\277\374\251\361\322MbP?\270\036\205\353Q\270\256?\372~j\274t\223\230\277y\351&1\010\254\234\277\354Q\270\036\205\353\241\277{\024\256G\341z\204\277\n\327\243p=\n\247?\031\004V\016-\262\235?\372~j\274t\223\210?\374\251\361\322Mb`\277X9\264\310v\276\237?\000\000\000\000\000\000\000\000;\337O\215\227n\222?\234\304 \260rh\221\277{\024\256G\341zt?\211A`\345\320\"\253?\n\327\243p=\n\247\277\333\371~j\274t\223\277\000\000\000\000\000\000\000\000\234\304 \260rh\221?\270\036\205\353Q\270\236\277\333\371~j\274t\243?\374\251\361\322Mb\200\277\374\251\361\322Mbp?\031\004V\016-\262\235?\000\000\000\000\000\000\000\000\374\251\361\322Mb\260?{\024\256G\341z\264\277;\337O\215\227n\242\277\010\254\034Zd;\257\277\374\251\361\322Mb`?y\351&1\010\254|?{\024\256G\341z\204?\033/\335$\006\201\225?;\337O\215\227n\222\277\252\361\322Mb\020\250\277\374\251\361\322Mbp?\374\251\361\322Mb\260\277\272I\014\002+\207\226\277;\337O\215\227n\242\277y\351&1\010\254|?\234\304 \260rh\221\277\223\030\004V\016-\262\277{\024\256G\341zt?\331\316\367S\343\245\233?9\264\310v\276\237\212?9\264\310v\276\237\212\277L7\211A`\345\240?\272I\014\002+\207\206?\272I\014\002+\207\226\277h\221\355|?5\256?;\337O\215\227n\262\277\333\371~j\274t\243\277{\024\256G\341zt?y\351&1\010\254\254?{\024\256G\341z\204\277\323Mb\020X9\264\277\372~j\274t\223\230?\351&1\010\254\034\252\277\033/\335$\006\201\225?\033/\335$\006\201\225\277\311v\276\237\032/\255\277;\337O\215\227n\202?+\207\026\331\316\367\243?\331\316\367S\343\245\233?\033/\335$\006\201\225\277\372~j\274t\223\250?{\024\256G\341zt\277\331\316\367S\343\245\233\277\000\000\000\000\000\000\000\000)\\\217\302\365(\254?y\351&1\010\254\214\277\374\251\361\322Mb\200?9\264\310v\276\237\212?\211A`\345\320\"\253\277\374\251\361\322MbP?\000\000\000\000\000\000\000\000+\207\026\331\316\367\243\277\372~j\274t\223\230?\333\371~j\274t\223\277j\274t\223\030\004\246?{\024\256G\341z\204?;\337O\215\227n\262\277\372~j\274t\223\210\277Zd;\337O\215\227\277;\337O\215\227n\222?\000\000\000\000\000\000\000\000\234\304 \260rh\221?j\274t\223\030\004\246?\033/\335$\006\201\225?\232\231\231\231\231\231\231\277\374\251\361\322Mbp?\272I\014\002+\207\206\277\000\000\000\000\000\000\000\000\234\304 \260rh\221?\272I\014\002+\207\206\277\331\316\367S\343\245\253\277\333\371~j\274t\243\277\372~j\274t\223\230\277\333\371~j\274t\223?y\351&1\010\254\214\277\331\316\367S\343\245\233\277L7\211A`\345\240\277\000\000\000\000\000\000\000\000\033/\335$\006\201\225\277\000\000\000\000\000\000\000\000\234\304 \260rh\221\277\272I\014\002+\207\226?\372~j\274t\223\210?\031\004V\016-\262\255\277\364\375\324x\351&\261?\272I\014\002+\207\206?\333\371~j\274t\223\277T\343\245\233\304 \260\277\270\036\205\353Q\270\256\277\364\375\324x\351&\261\277\354Q\270\036\205\353\241?\213l\347\373\251\361\242?\n\327\243p=\n\247\277\244p=\n\327\243\260?\372~j\274t\223\230\277\234\304 \260rh\221\277Zd;\337O\215\227\277\272I\014\002+\207\226\277\n\327\243p=\n\247?\372~j\274t\223\210\2779\264\310v\276\237\212?\033/\335$\006\201\225?\372~j\274t\223\230?j\274t\223\030\004\246?\374\251\361\322Mb\200?j\274t\223\030\004\246\277\374\251\361\322Mb`\277\270\036\205\353Q\270\236?y\351&1\010\254\214?\333\371~j\274t\243?\372~j\274t\223\210?\213l\347\373\251\361\242?\n\327\243p=\n\247\277{\024\256G\341z\224\277{\024\256G\341z\224?\270\036\205\353Q\270\256\277\372~j\274t\223x\277\372~j\274t\223h\2779\264\310v\276\237\232\277L7\211A`\345\260\277\000\000\000\000\000\000\000\000\354Q\270\036\205\353\241\277\372~j\274t\223x\277y\351&1\010\254\234\277\033/\335$\006\201\225\277\234\304 \260rh\241\277\234\304 \260rh\261?y\351&1\010\254\214?;\337O\215\227n\222\277\354Q\270\036\205\353\241?\351&1\010\254\034\252?;\337O\215\227n\242\277\270\036\205\353Q\270\236\277Zd;\337O\215\227?)\\\217\302\365(\254?\333\371~j\274t\263\277X9\264\310v\276\257?y\351&1\010\254|?\333\371~j\274t\223\277{\024\256G\341z\224?L7\211A`\345\240?\010\254\034Zd;\257?\270\036\205\353Q\270\236?\272I\014\002+\207\226\277{\024\256G\341zt\277\374\251\361\322Mb`\277{\024\256G\341z\204?\270\036\205\353Q\270\256\277\211A`\345\320\"\253\277{\024\256G\341z\224?\031\004V\016-\262\235?Zd;\337O\215\247?\270\036\205\353Q\270\216\2779\264\310v\276\237\232?L7\211A`\345\240?y\351&1\010\254\214\277\372~j\274t\223\230?\333\371~j\274t\243?\n\327\243p=\n\247\277\374\251\361\322Mb`?\000\000\000\000\000\000\000\000\372~j\274t\223\250?\374\251\361\322Mb`?;\337O\215\227n\242?\000\000\000\000\000\000\000\000\272I\014\002+\207\206\277\272I\014\002+\207\206?X9\264\310v\276\257?\244p=\n\327\243\260\277y\351&1\010\254\214?\234\304 \260rh\241\277\372~j\274t\223\230?\372~j\274t\223\230?{\024\256G\341zt?\234\304 \260rh\221\277y\351&1\010\254\234?\372~j\274t\223h?\000\000\000\000\000\000\000\000\333\371~j\274t\223\277\311v\276\237\032/\255\277\372~j\274t\223\210\277\272I\014\002+\207\226\277{\024\256G\341zt?\272I\014\002+\207\226\277\374\251\361\322Mb`?\374\251\361\322Mb`\277;\337O\215\227n\202\277\374\251\361\322Mb\220\277j\274t\223\030\004\246\277\000\000\000\000\000\000\000\000;\337O\215\227n\242\277X9\264\310v\276\237?9\264\310v\276\237\212?\232\231\231\231\231\231\231\277\272I\014\002+\207\206?{\024\256G\341z\244\277;\337O\215\227n\202?9\264\310v\276\237\232?\031\004V\016-\262\235\277\372~j\274t\223x?\372~j\274t\223x\277j\274t\223\030\004\246?\270\036\205\353Q\270\236\277\374\251\361\322Mb\200\277\374\251\361\322Mb\220\277y\351&1\010\254|\277y\351&1\010\254\254\277;\337O\215\227n\222\2779\264\310v\276\237\252?;\337O\215\227n\222?\333\371~j\274t\223?\234\304 \260rh\221\277Zd;\337O\215\267?y\351&1\010\254|?\374\251\361\322Mbp?9\264\310v\276\237\232?{\024\256G\341z\204?\033/\335$\006\201\225\277\372~j\274t\223\230\277\331\316\367S\343\245\233?\333\371~j\274t\223\277\374\251\361\322Mb\220?\374\251\361\322Mb\200\2779\264\310v\276\237\252?\374\251\361\322Mb\240?;\337O\215\227n\222?\354Q\270\036\205\353\261\277\374\251\361\322Mb\200?\033/\335$\006\201\225?\031\004V\016-\262\235\277y\351&1\010\254\214\277)\\\217\302\365(\254?\372~j\274t\223x?\372~j\274t\223\210?\372~j\274t\223\230?\272I\014\002+\207\206\277\272I\014\002+\207\206?\372~j\274t\223h\277{\024\256G\341z\204?Zd;\337O\215\227?{\024\256G\341z\224?;\337O\215\227n\242?;\337O\215\227n\222\277J\014\002+\207\026\251?\234\304 \260rh\221\277;\337O\215\227n\222?{\024\256G\341z\244\277\374\251\361\322Mbp?\372~j\274t\223\230?\374\251\361\322Mb`\277\000\000\000\000\000\000\000\000\272I\014\002+\207\246\277\000\000\000\000\000\000\000\000\372~j\274t\223\230\277\270\036\205\353Q\270\236\277\203\300\312\241E\266\263\277{\024\256G\341z\244?\033/\335$\006\201\225?\331\316\367S\343\245\233?L7\211A`\345\240?{\024\256G\341z\224?\232\231\231\231\231\231\231?\033/\335$\006\201\225\277j\274t\223\030\004\246?y\351&1\010\254\214?\232\231\231\231\231\231\231?\331\316\367S\343\245\233\277y\351&1\010\254|?\000\000\000\000\000\000\000\000\000\000\000\000\000\000\000\000j\274t\223\030\004\246\277\372~j\274t\223\210\277+\207\026\331\316\367\263?\372~j\274t\223\230?\331\316\367S\343\245\233?\372~j\274t\223\250?\372~j\274t\223x?\372~j\274t\223\250\277\000\000\000\000\000\000\000\000\031\004V\016-\262\235\277\333\371~j\274t\243?\372~j\274t\223h\277\374\251\361\322Mb\240\277\033/\335$\006\201\245\277\372~j\274t\223\250?\331\316\367S\343\245\233?\031\004V\016-\262\235\277\372~j\274t\223x\277\372~j\274t\223x?j\274t\223\030\004\246\277\372~j\274t\223\250\2779\264\310v\276\237\232\277\331\316\367S\343\245\233\277\234\304 \260rh\241\277\372~j\274t\223\210?;\337O\215\227n\222\277\372~j\274t\223\210?\033/\335$\006\201\245\277{\024\256G\341zt?\221\355|?5^\272?X9\264\310v\276\237\277\351&1\010\254\034\252\277\213l\347\373\251\361\242\277X9\264\310v\276\237?9\264\310v\276\237\252?\374\251\361\322Mbp\277\372~j\274t\223\210?9\264\310v\276\237\212\277{\024\256G\341z\204\277\272I\014\002+\207\206?\354Q\270\036\205\353\241\277\234\304 \260rh\241\277\272I\014\002+\207\226\277\372~j\274t\223x\277\270\036\205\353Q\270\216?\331\316\367S\343\245\233?b\020X9\264\310\266?\372~j\274t\223h?\272I\014\002+\207\246\277Zd;\337O\215\247\277y\351&1\010\254\214?Zd;\337O\215\227\277\374\251\361\322MbP?Zd;\337O\215\247\277;\337O\215\227n\202?\232\231\231\231\231\231\231\277{\024\256G\341z\224\277{\024\256G\341zt?\272I\014\002+\207\206\277X9\264\310v\276\237?\372~j\274t\223h?T\343\245\233\304 \260?\323Mb\020X9\264\277\333\371~j\274t\223?y\351&1\010\254|?y\351&1\010\254\214\277;\337O\215\227n\202\277\000\000\000\000\000\000\000\000\031\004V\016-\262\235\277\031\004V\016-\262\235?\374\251\361\322Mb\220?J\014\002+\207\026\271\277{\024\256G\341z\264?y\351&1\010\254\234?L7\211A`\345\260\277L7\211A`\345\240?\374\251\361\322MbP\277{\024\256G\341z\224?\372~j\274t\223\250?\374\251\361\322Mb\220?\374\251\361\322Mb\200\277\372~j\274t\223h\277\374\251\361\322Mbp\277\234\304 \260rh\221\277\031\004V\016-\262\255?;\337O\215\227n\202\277y\351&1\010\254|?{\024\256G\341zt?Zd;\337O\215\227?\270\036\205\353Q\270\216\277\234\304 \260rh\221\277\033/\335$\006\201\225?y\351&1\010\254\234?\374\251\361\322MbP?{\024\256G\341z\224\277;\337O\215\227n\202\277#\333\371~j\274\264\277\354Q\270\036\205\353\261?\331\316\367S\343\245\233?\354Q\270\036\205\353\241?\000\000\000\000\000\000\000\000\000\000\000\000\000\000\000\000\374\251\361\322Mbp\277Zd;\337O\215\227\277\372~j\274t\223\210?9\264\310v\276\237\232?\031\004V\016-\262\255\277\270\036\205\353Q\270\236?y\351&1\010\254\234\277L7\211A`\345\240\277\031\004V\016-\262\235\277\374\251\361\322Mb`?9\264\310v\276\237\212\277\211A`\345\320\"\253\277\000\000\000\000\000\000\000\000\374\251\361\322Mb\220\277\374\251\361\322Mb`?\372~j\274t\223h\277\372~j\274t\223x\277\374\251\361\322Mb\200\277\270\036\205\353Q\270\216\277\331\316\367S\343\245\253\277\374\251\361\322Mb`?\333\371~j\274t\243?\313\241E\266\363\375\244\277L7\211A`\345\240\277\374\251\361\322Mbp\277\374\251\361\322Mb`?\333\371~j\274t\223\277\374\251\361\322Mbp\277\033/\335$\006\201\225\2779\264\310v\276\237\232\277\374\251\361\322Mbp?\272I\014\002+\207\226?\270\036\205\353Q\270\216\277\033/\335$\006\201\245\277\374\251\361\322Mbp?\374\251\361\322Mb`\277{\024\256G\341zt?y\351&1\010\254|\277\374\251\361\322Mb\200?{\024\256G\341z\224\277y\351&1\010\254|\277\374\251\361\322Mb`?\364\375\324x\351&\261?y\351&1\010\254\214?;\337O\215\227n\242\277\272I\014\002+\207\206\277\374\251\361\322Mbp\277\272I\014\002+\207\226\277\331\316\367S\343\245\253\277\331\316\367S\343\245\233?9\264\310v\276\237\232?L7\211A`\345\240?L7\211A`\345\240\277\244p=\n\327\243\260\277;\337O\215\227n\242\277\232\231\231\231\231\231\231?\372~j\274t\223x?\374\251\361\322Mbp\277\372~j\274t\223\230?y\351&1\010\254\254?\270\036\205\353Q\270\236?9\264\310v\276\237\252?\374\251\361\322Mb`?j\274t\223\030\004\246?\372~j\274t\223x?\354Q\270\036\205\353\241\277\374\251\361\322Mb`?\333\371~j\274t\243\277\354Q\270\036\205\353\261?y\351&1\010\254\214\277\234\304 \260rh\221?\372~j\274t\223\230?\311v\276\237\032/\255\277;\337O\215\227n\242?\211A`\345\320\"\253\277y\351&1\010\254|?\374\251\361\322Mb`\277\272I\014\002+\207\206\277T\343\245\233\304 \260?y\351&1\010\254|?\270\036\205\353Q\270\256\277\232\231\231\231\231\231\231\277Zd;\337O\215\227?Zd;\337O\215\227\277\372~j\274t\223\210?\374\251\361\322Mb\260\277;\337O\215\227n\242\2779\264\310v\276\237\212\277\374\251\361\322Mb`?{\024\256G\341z\204\277\372~j\274t\223h?9\264\310v\276\237\252\277\252\361\322Mb\020\250\277\000\000\000\000\000\000\000\000{\024\256G\341z\204\277\234\304 \260rh\221?\272I\014\002+\207\226\277\n\327\243p=\n\267?\272I\014\002+\207\226\277\333\371~j\274t\223?\374\251\361\322Mb`\277\354Q\270\036\205\353\241\277\311v\276\237\032/\255?\374\251\361\322Mb\200\277\372~j\274t\223\230?X9\264\310v\276\237?j\274t\223\030\004\246\277\033/\335$\006\201\245?J\014\002+\207\026\251?;\337O\215\227n\202?\234\304 \260rh\221?\372~j\274t\223\230?\232\231\231\231\231\231\231?{\024\256G\341zt?\272I\014\002+\207\226?{\024\256G\341z\224\277\033/\335$\006\201\225?;\337O\215\227n\242?\270\036\205\353Q\270\216\277\211A`\345\320\"\253\277Zd;\337O\215\227?\000\000\000\000\000\000\000\0009\264\310v\276\237\252\277y\351&1\010\254\254?\272I\014\002+\207\206?)\\\217\302\365(\254?\000\000\000\000\000\000\000\000j\274t\223\030\004\246\277\010\254\034Zd;\257?\372~j\274t\223x\277\270\036\205\353Q\270\236\277\270\036\205\353Q\270\236\277\374\251\361\322Mbp?X9\264\310v\276\237\277\374\251\361\322Mb`?\033/\335$\006\201\225?j\274t\223\030\004\246\277\374\251\361\322Mb\240\277X9\264\310v\276\237\277\333\371~j\274t\223\277y\351&1\010\254|\277\031\004V\016-\262\235?9\264\310v\276\237\212\277\374\251\361\322Mb`?\270\036\205\353Q\270\256\277\323Mb\020X9\264\277\270\036\205\353Q\270\236\277{\024\256G\341zt\277\000\000\000\000\000\000\000\000\221\355|?5^\272?X9\264\310v\276\257\277y\351&1\010\254\234\277\313\241E\266\363\375\244?\374\251\361\322Mb\220\277\270\036\205\353Q\270\216?\213l\347\373\251\361\242?y\351&1\010\254\214?\372~j\274t\223x?y\351&1\010\254|\277\234\304 \260rh\241?X9\264\310v\276\237?y\351&1\010\254\214?;\337O\215\227n\242?{\024\256G\341z\244\277\372~j\274t\223\230?\333\371~j\274t\223?{\024\256G\341zt?\331\316\367S\343\245\253\277+\207\026\331\316\367\243\277y\351&1\010\254\214?y\351&1\010\254\234?\272I\014\002+\207\206\277\372~j\274t\223x\277\374\251\361\322Mbp\277j\274t\223\030\004\246?y\351&1\010\254\214\2779\264\310v\276\237\212\277y\351&1\010\254\234?\374\251\361\322Mbp?\033/\335$\006\201\225?;\337O\215\227n\202\277\270\036\205\353Q\270\216?\372~j\274t\223\210?\351&1\010\254\034\252\277\374\251\361\322Mbp?\234\304 \260rh\241?y\351&1\010\254\254?;\337O\215\227n\242\277\372~j\274t\223\250?\372~j\274t\223x?9\264\310v\276\237\232?\372~j\274t\223x\277\374\251\361\322Mb\220\277y\351&1\010\254|\277\010\254\034Zd;\257?B`\345\320\"\333\271?#\333\371~j\274\264?\232\231\231\231\231\231\251\277\372~j\274t\223\250?{\024\256G\341zt?9\264\310v\276\237\212?\333\371~j\274t\243?{\024\256G\341z\204\277\374\251\361\322Mb\200?j\274t\223\030\004\246\277{\024\256G\341zt?\031\004V\016-\262\235\277\372~j\274t\223\230?\372~j\274t\223x\2779\264\310v\276\237\232\277\374\251\361\322Mb\240?L7\211A`\345\240\277\333\371~j\274t\243?Zd;\337O\215\227\277\270\036\205\353Q\270\236\277\374\251\361\322Mb`\277\374\251\361\322Mb\220?\232\231\231\231\231\231\231?9\264\310v\276\237\212\277\232\231\231\231\231\231\231\277{\024\256G\341z\204?\333\371~j\274t\243\277\372~j\274t\223h?\333\371~j\274t\223\277y\351&1\010\254|\277\000\000\000\000\000\000\000\000\374\251\361\322Mb\240?\354Q\270\036\205\353\261?\031\004V\016-\262\255\277y\351&1\010\254|?\374\251\361\322Mbp\277\372~j\274t\223\270?\374\251\361\322Mbp\277\244p=\n\327\243\260?\372~j\274t\223x?\374\251\361\322Mb`\277\313\241E\266\363\375\244\277y\351&1\010\254\214\277\374\251\361\322Mb\220\277\372~j\274t\223\230?y\351&1\010\254\254?9\264\310v\276\237\232?9\264\310v\276\237\252?\272I\014\002+\207\206\277;\337O\215\227n\202?\000\000\000\000\000\000\000\000\372~j\274t\223\250\277\331\316\367S\343\245\233?\033/\335$\006\201\225?\270\036\205\353Q\270\216?\031\004V\016-\262\235?\374\251\361\322Mb`?\203\300\312\241E\266\263?\000\000\000\000\000\000\000\000\374\251\361\322Mb\240\277\033/\335$\006\201\225?9\264\310v\276\237\252?{\024\256G\341z\204?\374\251\361\322Mb\220\277{\024\256G\341z\244?{\024\256G\341z\224\277{\024\256G\341z\224?#\333\371~j\274\264?\372~j\274t\223\250?\n\327\243p=\n\247?\031\004V\016-\262\235\277\374\251\361\322Mb\200\277Zd;\337O\215\227\277{\024\256G\341z\224?\010\254\034Zd;\257?X9\264\310v\276\237\277\272I\014\002+\207\246\277{\024\256G\341zt\277\372~j\274t\223x\277\374\251\361\322Mb\220?;\337O\215\227n\202\277\333\371~j\274t\243?\272I\014\002+\207\206?\272I\014\002+\207\206?9\264\310v\276\237\252\277Zd;\337O\215\247?L7\211A`\345\260\277\234\304 \260rh\241\277\374\251\361\322Mb\240\277\272I\014\002+\207\206?\374\251\361\322Mb`\277y\351&1\010\254\214?Zd;\337O\215\247\277\372~j\274t\223\250\277Zd;\337O\215\227\277\270\036\205\353Q\270\236?\033/\335$\006\201\225?\372~j\274t\223\210\277\000\000\000\000\000\000\000\000J\014\002+\207\026\271\277\333\371~j\274t\243\277y\351&1\010\254\214\277\272I\014\002+\207\206?+\207\026\331\316\367\243?\232\231\231\231\231\231\231?\331\316\367S\343\245\233?\333\371~j\274t\243?;\337O\215\227n\222?\270\036\205\353Q\270\216\277\252\361\322Mb\020\250?\374\251\361\322Mbp\277\374\251\361\322Mb`?\372~j\274t\223h?{\024\256G\341z\224\277;\337O\215\227n\202\277\272I\014\002+\207\226?\374\251\361\322Mb`\277\272I\014\002+\207\246?\213l\347\373\251\361\262?\033/\335$\006\201\225\277+\207\026\331\316\367\243\277\031\004V\016-\262\235\277y\351&1\010\254|\277\333\371~j\274t\243?\372~j\274t\223x?\270\036\205\353Q\270\216\277\000\000\000\000\000\000\000\000\374\251\361\322Mb\220?\031\004V\016-\262\235\277\270\036\205\353Q\270\236?\303\365(\\\217\302\265?{\024\256G\341z\204?\272I\014\002+\207\206\2779\264\310v\276\237\212?\234\304 \260rh\221?j\274t\223\030\004\246?\374\251\361\322Mb`\277\270\036\205\353Q\270\216\277\272I\014\002+\207\206\277\331\316\367S\343\245\253\2779\264\310v\276\237\252?Zd;\337O\215\227\277\000\000\000\000\000\000\000\000\262\235\357\247\306K\267\277\031\004V\016-\262\255?L7\211A`\345\240?\234\304 \260rh\221?\372~j\274t\223x\277\n\327\243p=\n\247?\374\251\361\322Mb\220?X9\264\310v\276\237?\372~j\274t\223\230\2779\264\310v\276\237\232?\374\251\361\322Mb\220\277\333\371~j\274t\263?\331\316\367S\343\245\233?X9\264\310v\276\237\277\033/\335$\006\201\225\277Zd;\337O\215\247?\374\251\361\322Mbp?j\274t\223\030\004\246?\031\004V\016-\262\235\277\374\251\361\322MbP\277y\351&1\010\254\234?\374\251\361\322Mb\220\277\033/\335$\006\201\225\277{\024\256G\341z\224?X9\264\310v\276\237?\372~j\274t\223\230\277Zd;\337O\215\227?\223\030\004V\016-\262\277\211A`\345\320\"\253\277\244p=\n\327\243\260?\272I\014\002+\207\206\277{\024\256G\341z\244\277;\337O\215\227n\222?\211A`\345\320\"\253\277\354Q\270\036\205\353\241?\372~j\274t\223\210?\331\316\367S\343\245\233?h\221\355|?5\256?\031\004V\016-\262\235?\374\251\361\322Mb\240\2779\264\310v\276\237\212?\252\361\322Mb\020\250?;\337O\215\227n\262?\234\304 \260rh\221?\232\231\231\231\231\231\251?\203\300\312\241E\266\263\277\374\251\361\322Mb`\277\372~j\274t\223\250\277{\024\256G\341zt?{\024\256G\341z\244?j\274t\223\030\004\246?X9\264\310v\276\237?\272I\014\002+\207\226?\232\231\231\231\231\231\231\277\374\251\361\322Mbp\277\232\231\231\231\231\231\251\277\372~j\274t\223x\277;\337O\215\227n\222\277\374\251\361\322Mb\220?\372~j\274t\223x?\374\251\361\322Mb`?+\207\026\331\316\367\243?\033/\335$\006\201\225\277;\337O\215\227n\242?\354Q\270\036\205\353\241\277;\337O\215\227n\222?\372~j\274t\223\210?\372~j\274t\223h\277\252\361\322Mb\020\250?;\337O\215\227n\202\277Zd;\337O\215\227?;\337O\215\227n\262\277X9\264\310v\276\257?\234\304 \260rh\221?\374\251\361\322Mb\220?\374\251\361\322Mb\220\277\372~j\274t\223\210?\374\251\361\322Mb`\2779\264\310v\276\237\212\2779\264\310v\276\237\232?X9\264\310v\276\237?\374\251\361\322Mb\200?\374\251\361\322Mb`\277\272I\014\002+\207\226?\374\251\361\322Mb\200?y\351&1\010\254|?\333\371~j\274t\223\277\000\000\000\000\000\000\000\000\270\036\205\353Q\270\216\277L7\211A`\345\240\2779\264\310v\276\237\212\277Zd;\337O\215\227?\232\231\231\231\231\231\231?+\207\026\331\316\367\243?\372~j\274t\223x\277\374\251\361\322Mbp\2779\264\310v\276\237\212?\010\254\034Zd;\257?\033/\335$\006\201\225\2779\264\310v\276\237\252?+\207\026\331\316\367\243\277h\221\355|?5\256\277\374\251\361\322Mb\200\277\351&1\010\254\034\252?{\024\256G\341z\224\277\272I\014\002+\207\206?\272I\014\002+\207\226?\333\371~j\274t\243\2779\264\310v\276\237\232?\374\251\361\322Mb\220?\033/\335$\006\201\225?{\024\256G\341z\244\277j\274t\223\030\004\246?\374\251\361\322Mb\220\277\372~j\274t\223\250\277\323Mb\020X9\264?\374\251\361\322Mbp?X9\264\310v\276\237?\331\316\367S\343\245\253?\010\254\034Zd;\257\277\374\251\361\322Mb\220?;\337O\215\227n\202\277\331\316\367S\343\245\233?\374\251\361\322Mb\220?y\351&1\010\254\254?\372~j\274t\223x?\372~j\274t\223\230?\354Q\270\036\205\353\241?\033/\335$\006\201\225?\372~j\274t\223\230?\374\251\361\322Mbp\277\213l\347\373\251\361\242?\333\371~j\274t\223?\031\004V\016-\262\235\277y\351&1\010\254|?\033/\335$\006\201\245?\244p=\n\327\243\260?\270\036\205\353Q\270\236?\374\251\361\322Mb`\277\033/\335$\006\201\225?\213l\347\373\251\361\242\277\333\371~j\274t\223?\374\251\361\322Mb`?Zd;\337O\215\227\277\270\036\205\353Q\270\256?{\024\256G\341z\204?\272I\014\002+\207\206?;\337O\215\227n\242\277\374\251\361\322MbP\277\374\251\361\322Mbp\277;\337O\215\227n\222\277)\\\217\302\365(\254\277\374\251\361\322Mb\220?Zd;\337O\215\227?;\337O\215\227n\222\277y\351&1\010\254|\277\n\327\243p=\n\247?\n\327\243p=\n\247?\374\251\361\322Mb\200?\234\304 \260rh\241?+\207\026\331\316\367\263\277\270\036\205\353Q\270\216?\374\251\361\322Mb`?\331\316\367S\343\245\233\277D\213l\347\373\251\261?{\024\256G\341z\204?;\337O\215\227n\242?9\264\310v\276\237\212\277\000\000\000\000\000\000\000\000Zd;\337O\215\227?\234\304 \260rh\221?\213l\347\373\251\361\242\277\252\361\322Mb\020\250?\372~j\274t\223x?\364\375\324x\351&\261?y\351&1\010\254\214?\313\241E\266\363\375\244\277Zd;\337O\215\247?{\024\256G\341z\224\277\272I\014\002+\207\206?\333\371~j\274t\243?\372~j\274t\223\230?\354Q\270\036\205\353\241?;\337O\215\227n\262?\372~j\274t\223x\277\374\251\361\322Mb\240\277\372~j\274t\223\210\277{\024\256G\341zt\277\374\251\361\322MbP?\372~j\274t\223\230\277\331\316\367S\343\245\233?\232\231\231\231\231\231\231\277\272I\014\002+\207\206?\270\036\205\353Q\270\236?{\024\256G\341zt?;\337O\215\227n\222?9\264\310v\276\237\232\277Zd;\337O\215\227\277\354Q\270\036\205\353\241?\354Q\270\036\205\353\241\277\333\371~j\274t\223\277y\351&1\010\254\234?X9\264\310v\276\237\277\033/\335$\006\201\245\277)\\\217\302\365(\254\277\031\004V\016-\262\235\277\372~j\274t\223\210?X9\264\310v\276\237\277{\024\256G\341z\244?y\351&1\010\254|\277{\024\256G\341zt?\374\251\361\322Mb`?{\024\256G\341zt?\372~j\274t\223x\277\374\251\361\322Mb\200\277\232\231\231\231\231\231\251?\000\000\000\000\000\000\000\000\374\251\361\322Mbp?\374\251\361\322Mb\200?\372~j\274t\223\210?D\213l\347\373\251\261\277y\351&1\010\254\214?`\345\320\"\333\371\276\277\333\371~j\274t\223?\n\327\243p=\n\247\277j\274t\223\030\004\246?Zd;\337O\215\227\277\372~j\274t\223\230\277\232\231\231\231\231\231\231\277\374\251\361\322MbP\277b\020X9\264\310\266\277\n\327\243p=\n\247\277\331\316\367S\343\245\233?;\337O\215\227n\242?\333\371~j\274t\243\2779\264\310v\276\237\212\277;\337O\215\227n\242\277\234\304 \260rh\241?\374\251\361\322Mbp\277Zd;\337O\215\227\2779\264\310v\276\237\232\277\372~j\274t\223x?{\024\256G\341zt\277J\014\002+\207\026\251\277;\337O\215\227n\242\277\374\251\361\322Mb\240\2779\264\310v\276\237\252\277\010\254\034Zd;\257?\211A`\345\320\"\253\277\000\000\000\000\000\000\000\000\033/\335$\006\201\225\277\374\251\361\322Mb\200?\333\371~j\274t\243?\272I\014\002+\207\206\2779\264\310v\276\237\212\277\372~j\274t\223\230\277\372~j\274t\223\210?;\337O\215\227n\242\277\374\251\361\322Mb`?\270\036\205\353Q\270\256?{\024\256G\341z\224?\313\241E\266\363\375\244?;\337O\215\227n\242\277\211A`\345\320\"\253\277\372~j\274t\223h\277J\014\002+\207\026\251\277\372~j\274t\223\250\277\272I\014\002+\207\206\277\372~j\274t\223x?\372~j\274t\223h?\033/\335$\006\201\225\277\333\371~j\274t\223\277\270\036\205\353Q\270\236\277\374\251\361\322Mb\220?{\024\256G\341z\204\277\372~j\274t\223\230\277\234\304 \260rh\261?\270\036\205\353Q\270\216?\232\231\231\231\231\231\231\277{\024\256G\341z\204\277\333\371~j\274t\223?;\337O\215\227n\242?;\337O\215\227n\242?\272I\014\002+\207\206\277\033/\335$\006\201\245?\374\251\361\322Mb\240\277L7\211A`\345\240\277\374\251\361\322Mbp\277\272I\014\002+\207\226\277\333\371~j\274t\243?\372~j\274t\223x?\374\251\361\322Mbp?\354Q\270\036\205\353\261?;\337O\215\227n\242\277\333\371~j\274t\243\277\372~j\274t\223\210?{\024\256G\341zt?\213l\347\373\251\361\262?\031\004V\016-\262\235\277\033/\335$\006\201\225?{\024\256G\341z\304?\033/\335$\006\201\225\277\033/\335$\006\201\265?)\\\217\302\365(\254\277{\024\256G\341z\244\277\333\371~j\274t\223?\372~j\274t\223\210\277;\337O\215\227n\222?{\024\256G\341zt?j\274t\223\030\004\246?L7\211A`\345\260\277;\337O\215\227n\242?\234\304 \260rh\241?\331\316\367S\343\245\233\277\244p=\n\327\243\260?\313\241E\266\363\375\244\277j\274t\223\030\004\246\277\234\304 \260rh\221\277\234\304 \260rh\221?{\024\256G\341z\204?;\337O\215\227n\222?T\343\245\233\304 \260?{\024\256G\341zt\277{\024\256G\341z\204?\372~j\274t\223\210\277{\024\256G\341z\244?\374\251\361\322Mbp?\n\327\243p=\n\267?\372~j\274t\223x\277{\024\256G\341z\204\277\234\304 \260rh\221\277\331\316\367S\343\245\253\277\272I\014\002+\207\206\277j\274t\223\030\004\246?;\337O\215\227n\202?\234\304 \260rh\221?\000\000\000\000\000\000\000\000\272I\014\002+\207\226\277j\274t\223\030\004\266?+\207\026\331\316\367\243\277\031\004V\016-\262\235?\n\327\243p=\n\247?333333\263?\374\251\361\322Mbp?\374\251\361\322Mb\220\277;\337O\215\227n\202?X9\264\310v\276\237\277L7\211A`\345\240\277)\\\217\302\365(\254?\374\251\361\322Mb\300?\303\365(\\\217\302\265\277L7\211A`\345\240?\374\251\361\322Mb`?\331\316\367S\343\245\253\277{\024\256G\341z\204\277\272I\014\002+\207\206?{\024\256G\341z\244?\374\251\361\322Mbp\2779\264\310v\276\237\232?+\207\026\331\316\367\243\277\331\316\367S\343\245\233?j\274t\223\030\004\246\277\272I\014\002+\207\226\277\333\371~j\274t\223?9\264\310v\276\237\232\277\333\371~j\274t\223\277\000\000\000\000\000\000\000\000\374\251\361\322Mb`?\374\251\361\322Mb\220?;\337O\215\227n\242\277\252\361\322Mb\020\250?Zd;\337O\215\247?\270\036\205\353Q\270\236?\333\371~j\274t\243?\374\251\361\322Mb\220\277\033/\335$\006\201\225?\374\251\361\322Mbp\277\272I\014\002+\207\226?{\024\256G\341zt?\374\251\361\322Mb`\277\223\030\004V\016-\262\277\232\231\231\231\231\231\231?y\351&1\010\254|?y\351&1\010\254|?\374\251\361\322Mb\200?L7\211A`\345\240?\311v\276\237\032/\255?+\207\026\331\316\367\243\2779\264\310v\276\237\232\277{\024\256G\341zt?\333\371~j\274t\223\277\333\371~j\274t\243\277y\351&1\010\254\214\277\270\036\205\353Q\270\216\277Zd;\337O\215\247\277Zd;\337O\215\227\277\270\036\205\353Q\270\216?X9\264\310v\276\237?\372~j\274t\223x\277\372~j\274t\223h?\272I\014\002+\207\226?\031\004V\016-\262\255?;\337O\215\227n\262\277{\024\256G\341z\224?\374\251\361\322Mbp\277\272I\014\002+\207\226?y\351&1\010\254\234\277\010\254\034Zd;\257\277;\337O\215\227n\242?;\337O\215\227n\222\277\374\251\361\322Mb`\277Zd;\337O\215\227\277\033/\335$\006\201\225?\333\371~j\274t\243\2779\264\310v\276\237\212\277\313\241E\266\363\375\244?Zd;\337O\215\227?\234\304 \260rh\221?\234\304 \260rh\241\277\033/\335$\006\201\245?;\337O\215\227n\242?;\337O\215\227n\202?\n\327\243p=\n\247\277\374\251\361\322Mb\240\277\333\371~j\274t\223?\374\251\361\322Mb\200?9\264\310v\276\237\212\277Zd;\337O\215\227\277\372~j\274t\223\210?\351&1\010\254\034\272\277\234\304 \260rh\221\277Zd;\337O\215\247?\374\251\361\322Mb\200\277{\024\256G\341z\204?\270\036\205\353Q\270\276\277\000\000\000\000\000\000\000\000\372~j\274t\223\230?\372~j\274t\223\210?\374\251\361\322Mb`\277\372~j\274t\223x\277\354Q\270\036\205\353\241?9\264\310v\276\237\212\277\351&1\010\254\034\252?\374\251\361\322Mb\220\277\272I\014\002+\207\206\277Zd;\337O\215\247?T\343\245\233\304 \260\277\372~j\274t\223h?;\337O\215\227n\202?Zd;\337O\215\247\277\374\251\361\322Mb\200\277\372~j\274t\223\210?\374\251\361\322Mbp?\372~j\274t\223\210?{\024\256G\341z\224?\333\371~j\274t\243\277Zd;\337O\215\227?\031\004V\016-\262\235\277\234\304 \260rh\221?y\351&1\010\254\234\277\331\316\367S\343\245\233\277\372~j\274t\223\210?X9\264\310v\276\237?\372~j\274t\223\230\277{\024\256G\341z\224\277\031\004V\016-\262\255\2779\264\310v\276\237\272?;\337O\215\227n\202\277{\024\256G\341z\224?\333\371~j\274t\223\277\n\327\243p=\n\247?Zd;\337O\215\247\277\270\036\205\353Q\270\236\277j\274t\223\030\004\246?\234\304 \260rh\241?L7\211A`\345\260\277\n\327\243p=\n\247\277\031\004V\016-\262\235?;\337O\215\227n\222?\270\036\205\353Q\270\216?{\024\256G\341z\204\277\354Q\270\036\205\353\241\277\331\316\367S\343\245\233\277\232\231\231\231\231\231\251\277y\351&1\010\254|?Zd;\337O\215\227\277\244p=\n\327\243\260\277X9\264\310v\276\237\277\234\304 \260rh\221\277\372~j\274t\223\210\277j\274t\223\030\004\246?\000\000\000\000\000\000\000\000\272I\014\002+\207\206?{\024\256G\341z\204\277\333\371~j\274t\243?{\024\256G\341z\204?{\024\256G\341z\204\277;\337O\215\227n\242?\033/\335$\006\201\245\277y\351&1\010\254|\277;\337O\215\227n\222\277\031\004V\016-\262\255?\372~j\274t\223\210?\244p=\n\327\243\260\277\213l\347\373\251\361\242?\234\304 \260rh\221\277\311v\276\237\032/\255?\031\004V\016-\262\235\277\033/\335$\006\201\225\277\372~j\274t\223\230?\244p=\n\327\243\260?;\337O\215\227n\222?\333\371~j\274t\263\277\372~j\274t\223\210?L7\211A`\345\240?L7\211A`\345\240?X9\264\310v\276\237?\331\316\367S\343\245\233\277\374\251\361\322MbP\277\234\304 \260rh\261?\354Q\270\036\205\353\241?y\351&1\010\254|?\374\251\361\322Mbp?\270\036\205\353Q\270\216\277{\024\256G\341z\204?;\337O\215\227n\222?{\024\256G\341z\204\277{\024\256G\341z\204\277\372~j\274t\223x\277\033/\335$\006\201\225?\234\304 \260rh\221\2779\264\310v\276\237\212?\372~j\274t\223x\277y\351&1\010\254\234?\252\361\322Mb\020\250\2779\264\310v\276\237\232\277\333\371~j\274t\243?\232\231\231\231\231\231\231?;\337O\215\227n\242\277+\207\026\331\316\367\243?\270\036\205\353Q\270\236?\331\316\367S\343\245\233\277\033/\335$\006\201\225?{\024\256G\341z\264\277\270\036\205\353Q\270\236\277\374\251\361\322Mb`?\203\300\312\241E\266\263?\374\251\361\322Mb`\277\343\245\233\304 \260\262\277\234\304 \260rh\241?y\351&1\010\254|\277;\337O\215\227n\202\277\270\036\205\353Q\270\236?+\207\026\331\316\367\243?\333\371~j\274t\223\277\372~j\274t\223x\277\343\245\233\304 \260\262?{\024\256G\341z\224?1\010\254\034Zd\273?\372~j\274t\223h\277333333\263?\331\316\367S\343\245\233\277y\351&1\010\254|\277\213l\347\373\251\361\242\277\351&1\010\254\034\252\277\272I\014\002+\207\206\277\372~j\274t\223h\277\000\000\000\000\000\000\000\000\374\251\361\322Mb\220?\272I\014\002+\207\206?9\264\310v\276\237\232?\374\251\361\322Mb`?\374\251\361\322Mb\240?\234\304 \260rh\221\277\374\251\361\322Mb\220?\372~j\274t\223h?\252\361\322Mb\020\250?j\274t\223\030\004\246\277{\024\256G\341zt?\000\000\000\000\000\000\000\000\000\000\000\000\000\000\000\000\252\361\322Mb\020\250?9\264\310v\276\237\232?\374\251\361\322Mb\240\277\354Q\270\036\205\353\261?;\337O\215\227n\222\277\374\251\361\322Mb`?\033/\335$\006\201\225?\354Q\270\036\205\353\241?\270\036\205\353Q\270\236?{\024\256G\341z\244?{\024\256G\341zt?9\264\310v\276\237\232?\033/\335$\006\201\225\277L7\211A`\345\260\277\270\036\205\353Q\270\216\2779\264\310v\276\237\212?\252\361\322Mb\020\250\277;\337O\215\227n\242\277\000\000\000\000\000\000\000\000\374\251\361\322Mb`\277;\337O\215\227n\202\277;\337O\215\227n\202?\232\231\231\231\231\231\231?\270\036\205\353Q\270\216\277\000\000\000\000\000\000\000\000\341z\024\256G\341\272\277L7\211A`\345\240?\372~j\274t\223\210?9\264\310v\276\237\212?\372~j\274t\223\230\277\372~j\274t\223\230\277\272I\014\002+\207\206\2779\264\310v\276\237\232?\354Q\270\036\205\353\241?j\274t\223\030\004\246\277\000\000\000\000\000\000\000\000\333\371~j\274t\223?\270\036\205\353Q\270\216\277\372~j\274t\223\250\2779\264\310v\276\237\212?\333\371~j\274t\223\277;\337O\215\227n\242\277\270\036\205\353Q\270\256\277\272I\014\002+\207\206\277\374\251\361\322Mb`\277;\337O\215\227n\202\277y\351&1\010\254\234?\364\375\324x\351&\261?\033/\335$\006\201\245?\331\316\367S\343\245\233\277Zd;\337O\215\247\2779\264\310v\276\237\232?\374\251\361\322Mb\240\277;\337O\215\227n\242?y\351&1\010\254\234?\374\251\361\322Mb`\277\031\004V\016-\262\255?\351&1\010\254\034\252\277\333\371~j\274t\223?\272I\014\002+\207\226?y\351&1\010\254|\277{\024\256G\341z\244?\374\251\361\322Mb\220?\372~j\274t\223x?\333\371~j\274t\223\277\374\251\361\322Mb`\277\374\251\361\322Mbp?X9\264\310v\276\237?\270\036\205\353Q\270\216\277j\274t\223\030\004\246\277\244p=\n\327\243\260\277\000\000\000\000\000\000\000\000\374\251\361\322Mb`\277\031\004V\016-\262\235\277\270\036\205\353Q\270\236\277\234\304 \260rh\221?X9\264\310v\276\237?\272I\014\002+\207\246?\203\300\312\241E\266\263\277\311v\276\237\032/\255\277L7\211A`\345\240?\033/\335$\006\201\225\2779\264\310v\276\237\212\277\311v\276\237\032/\255\277y\351&1\010\254\214\277\374\251\361\322Mb\240\277\323Mb\020X9\264?\374\251\361\322Mb`\2779\264\310v\276\237\232\277{\024\256G\341z\224?\234\304 \260rh\241\277\374\251\361\322Mbp?X9\264\310v\276\237?\374\251\361\322MbP\277\270\036\205\353Q\270\216\277\213l\347\373\251\361\262\277\374\251\361\322Mb\240?\374\251\361\322Mbp?J\014\002+\207\026\271\277y\351&1\010\254\214\277;\337O\215\227n\242\277{\024\256G\341z\244?\272I\014\002+\207\206?\n\327\243p=\n\247\277y\351&1\010\254|\277y\351&1\010\254\214\277\234\304 \260rh\261\277{\024\256G\341zt\277{\024\256G\341z\244?\000\000\000\000\000\000\000\000\211A`\345\320\"\253\277\272I\014\002+\207\226\277;\337O\215\227n\242?\272I\014\002+\207\226?\234\304 \260rh\241\277{\024\256G\341zt\277;\337O\215\227n\242\277;\337O\215\227n\242?\234\304 \260rh\241?\232\231\231\231\231\231\251\277\234\304 \260rh\221\277+\207\026\331\316\367\243?y\351&1\010\254\234?\234\304 \260rh\241\277\374\251\361\322Mb`\2779\264\310v\276\237\232\277\272I\014\002+\207\246\277\333\371~j\274t\243\277\374\251\361\322Mb\260?j\274t\223\030\004\246\277\244p=\n\327\243\260?\313\241E\266\363\375\244?\002+\207\026\331\316\267?9\264\310v\276\237\232\277\374\251\361\322Mb\220?\333\371~j\274t\243?\374\251\361\322Mb`?\000\000\000\000\000\000\000\000;\337O\215\227n\222?{\024\256G\341z\204?9\264\310v\276\237\252?j\274t\223\030\004\246?)\\\217\302\365(\254?\374\251\361\322Mb`?y\351&1\010\254\254?\234\304 \260rh\241\2779\264\310v\276\237\212?{\024\256G\341zt\277\372~j\274t\223\230?\033/\335$\006\201\225\277\372~j\274t\223\230\277;\337O\215\227n\242\277\232\231\231\231\231\231\251?\374\251\361\322Mb`?`\345\320\"\333\371\276\277\372~j\274t\223\250\277\372~j\274t\223\210?\333\371~j\274t\243\2779\264\310v\276\237\252?\033/\335$\006\201\225\277;\337O\215\227n\202\277X9\264\310v\276\237?j\274t\223\030\004\246?\374\251\361\322Mb`?y\351&1\010\254|\277\372~j\274t\223\230?\010\254\034Zd;\257?X9\264\310v\276\257?\372~j\274t\223h\277\213l\347\373\251\361\262?\374\251\361\322Mb\200\277\331\316\367S\343\245\233?\374\251\361\322Mb`?y\351&1\010\254|?9\264\310v\276\237\232?\374\251\361\322Mb`?\331\316\367S\343\245\233?\234\304 \260rh\241\277X9\264\310v\276\257\277\331\316\367S\343\245\233?\331\316\367S\343\245\233\277\272I\014\002+\207\206\277\311v\276\237\032/\255?\374\251\361\322MbP?\232\231\231\231\231\231\231\277\031\004V\016-\262\235\277\354Q\270\036\205\353\241?L7\211A`\345\240\277\234\304 \260rh\221\277\033/\335$\006\201\245?{\024\256G\341z\224?\313\241E\266\363\375\244\277;\337O\215\227n\202\277\372~j\274t\223h?\333\371~j\274t\263\277\031\004V\016-\262\235\277Zd;\337O\215\227?\213l\347\373\251\361\242?\000\000\000\000\000\000\000\000\374\251\361\322Mb\220?+\207\026\331\316\367\243\277\374\251\361\322Mb\200?\272I\014\002+\207\206?{\024\256G\341z\244?+\207\026\331\316\367\263?y\351&1\010\254|\277Zd;\337O\215\247?\374\251\361\322Mb\220\277\000\000\000\000\000\000\000\000{\024\256G\341z\204\277\213l\347\373\251\361\242?\333\371~j\274t\243\277\374\251\361\322Mb\220?\223\030\004V\016-\262\277;\337O\215\227n\222\277\311v\276\237\032/\255?\372~j\274t\223x\277\272I\014\002+\207\226?X9\264\310v\276\257\277\232\231\231\231\231\231\231?\354Q\270\036\205\353\261?{\024\256G\341zt?\351&1\010\254\034\252\277\374\251\361\322MbP?+\207\026\331\316\367\243\277\000\000\000\000\000\000\000\000\374\251\361\322Mb\200?9\264\310v\276\237\212?Zd;\337O\215\227?\272I\014\002+\207\226?Zd;\337O\215\227\277y\351&1\010\254\214?\374\251\361\322Mb\240?9\264\310v\276\237\212\277X9\264\310v\276\237?{\024\256G\341z\264\277+\207\026\331\316\367\243?\374\251\361\322Mb\220?\372~j\274t\223x?\033/\335$\006\201\225\277{\024\256G\341z\204?\374\251\361\322Mbp\277\331\316\367S\343\245\233?\000\000\000\000\000\000\000\000\374\251\361\322MbP\277\031\004V\016-\262\235?\313\241E\266\363\375\244\277\033/\335$\006\201\225\277\232\231\231\231\231\231\231?;\337O\215\227n\202?\374\251\361\322Mb`\277\374\251\361\322Mb\200\277\000\000\000\000\000\000\000\000\031\004V\016-\262\255\277y\351&1\010\254\234?\333\371~j\274t\223?{\024\256G\341z\204?9\264\310v\276\237\212\277\272I\014\002+\207\206?\374\251\361\322Mb\200?;\337O\215\227n\202?\313\241E\266\363\375\244\277;\337O\215\227n\222\277;\337O\215\227n\242\277\031\004V\016-\262\235?\272I\014\002+\207\206?X9\264\310v\276\237\277\031\004V\016-\262\255?\031\004V\016-\262\255\277y\351&1\010\254|\277\000\000\000\000\000\000\000\000\272I\014\002+\207\206?\270\036\205\353Q\270\256\277Zd;\337O\215\227\277{\024\256G\341zt?\374\251\361\322Mb`?\270\036\205\353Q\270\256\277j\274t\223\030\004\246?j\274t\223\030\004\246\277\000\000\000\000\000\000\000\000\374\251\361\322Mbp?\372~j\274t\223x\277X9\264\310v\276\237?y\351&1\010\254|?\374\251\361\322Mb\220?j\274t\223\030\004\246\277\270\036\205\353Q\270\236?\272I\014\002+\207\226?{\024\256G\341zt\277{\024\256G\341z\244\277\313\241E\266\363\375\244?\232\231\231\231\231\231\231?\374\251\361\322Mbp?\270\036\205\353Q\270\216\277\372~j\274t\223\230?;\337O\215\227n\202?y\351&1\010\254|\277\223\030\004V\016-\262\277\333\371~j\274t\223?Zd;\337O\215\247\277\033/\335$\006\201\225\277{\024\256G\341z\224\277\343\245\233\304 \260\262?\351&1\010\254\034\252?\374\251\361\322Mb\200?\000\000\000\000\000\000\000\000\374\251\361\322Mb\200\277{\024\256G\341z\204?y\351&1\010\254|?Zd;\337O\215\247?\232\231\231\231\231\231\231?\333\371~j\274t\223\277\270\036\205\353Q\270\216?J\014\002+\207\026\251?Zd;\337O\215\227?y\351&1\010\254\234\2779\264\310v\276\237\252\277\031\004V\016-\262\255?y\351&1\010\254|\277\313\241E\266\363\375\244?\211A`\345\320\"\253\277\331\316\367S\343\245\233\277X9\264\310v\276\237\277\313\241E\266\363\375\244\277\270\036\205\353Q\270\236\277;\337O\215\227n\202?y\351&1\010\254\214?\037\205\353Q\270\036\305?\232\231\231\231\231\231\231?\374\251\361\322Mb`\277\000\000\000\000\000\000\000\000\374\251\361\322Mb\240?y\351&1\010\254\234\277X9\264\310v\276\237\277\033/\335$\006\201\225?\n\327\243p=\n\247\277\n\327\243p=\n\247\277Zd;\337O\215\227?;\337O\215\227n\222?\354Q\270\036\205\353\241?\031\004V\016-\262\235?\270\036\205\353Q\270\236\277;\337O\215\227n\242\277y\351&1\010\254\234\277\333\371~j\274t\263\277\033/\335$\006\201\225?\234\304 \260rh\241\277\031\004V\016-\262\235?\372~j\274t\223h?\272I\014\002+\207\226?;\337O\215\227n\242?\331\316\367S\343\245\253\277\341z\024\256G\341\272\277;\337O\215\227n\202?;\337O\215\227n\242?\374\251\361\322Mb`\277\354Q\270\036\205\353\241?{\024\256G\341zt\277;\337O\215\227n\202?j\274t\223\030\004\246\277T\343\245\233\304 \260?\270\036\205\353Q\270\236\277\244p=\n\327\243\260?\372~j\274t\223x?\252\361\322Mb\020\270\277Zd;\337O\215\267?\313\241E\266\363\375\244\277Zd;\337O\215\247\277\270\036\205\353Q\270\216?\033/\335$\006\201\225\277\372~j\274t\223x\277\270\036\205\353Q\270\216\277L7\211A`\345\240?\372~j\274t\223\210\277\374\251\361\322Mb`\277B`\345\320\"\333\271?\333\371~j\274t\243\277\234\304 \260rh\241\277\272I\014\002+\207\206\2779\264\310v\276\237\252\277{\024\256G\341z\224\277\234\304 \260rh\261\277{\024\256G\341zt?\333\371~j\274t\223?\232\231\231\231\231\231\231\2779\264\310v\276\237\212\277\374\251\361\322Mbp\277+\207\026\331\316\367\243?\272I\014\002+\207\226?y\351&1\010\254|\277\333\371~j\274t\223?\000\000\000\000\000\000\000\000\372~j\274t\223\210?\351&1\010\254\034\252?+\207\026\331\316\367\243?\272I\014\002+\207\206?Zd;\337O\215\227\277\354Q\270\036\205\353\241?\242E\266\363\375\324\270\277\272I\014\002+\207\206?y\351&1\010\254\214?\n\327\243p=\n\247\277\374\251\361\322Mbp?y\351&1\010\254|?\374\251\361\322Mb`\277\313\241E\266\363\375\244\277\372~j\274t\223x\277\252\361\322Mb\020\250?9\264\310v\276\237\232\277\272I\014\002+\207\226?\272I\014\002+\207\206\277{\024\256G\341z\204\277\234\304 \260rh\221\277\010\254\034Zd;\257?y\351&1\010\254|\277\272I\014\002+\207\206\277\234\304 \260rh\221\277y\351&1\010\254|\277;\337O\215\227n\202\277\234\304 \260rh\221?\203\300\312\241E\266\263\277\372~j\274t\223\250\277{\024\256G\341zt\277\331\316\367S\343\245\253\277\031\004V\016-\262\235?T\343\245\233\304 \260?;\337O\215\227n\202\277\311v\276\237\032/\255\277\213l\347\373\251\361\242?\033/\335$\006\201\225?\033/\335$\006\201\265?\234\304 \260rh\221\277\351&1\010\254\034\252?\372~j\274t\223x?y\351&1\010\254\234\277X9\264\310v\276\237?L7\211A`\345\240\277{\024\256G\341zt\277{\024\256G\341z\204\277{\024\256G\341z\224?;\337O\215\227n\222\277\272I\014\002+\207\246?;\337O\215\227n\242?\374\251\361\322Mb\220\277{\024\256G\341z\224\277\333\371~j\274t\243\277\270\036\205\353Q\270\236\277\364\375\324x\351&\261?;\337O\215\227n\202?;\337O\215\227n\202?\372~j\274t\223\250\277\234\304 \260rh\221\277\000\000\000\000\000\000\000\000\372~j\274t\223\210?\270\036\205\353Q\270\236?;\337O\215\227n\202\277y\351&1\010\254\254?#\333\371~j\274\264?;\337O\215\227n\202?+\207\026\331\316\367\243?{\024\256G\341z\244?\000\000\000\000\000\000\000\000X9\264\310v\276\257?\213l\347\373\251\361\242?\000\000\000\000\000\000\000\000\031\004V\016-\262\235\277\000\000\000\000\000\000\000\000\351&1\010\254\034\252\277\270\036\205\353Q\270\216\277;\337O\215\227n\202\277{\024\256G\341z\204?\270\036\205\353Q\270\216?\272I\014\002+\207\226\277\000\000\000\000\000\000\000\000\331\316\367S\343\245\233\277\341z\024\256G\341\272\277y\351&1\010\254\234\277\234\304 \260rh\221?\374\251\361\322Mb\200?X9\264\310v\276\237?\331\316\367S\343\245\233\277\252\361\322Mb\020\250?\333\371~j\274t\223\277\333\371~j\274t\223\277y\351&1\010\254|\277\234\304 \260rh\241\277\333\371~j\274t\223\277\244p=\n\327\243\260\277\372~j\274t\223x\277\374\251\361\322Mbp?\234\304 \260rh\221?\234\304 \260rh\241\277L7\211A`\345\240\277\033/\335$\006\201\225?\234\304 \260rh\221?\033/\335$\006\201\225\277\372~j\274t\223\230\277\234\304 \260rh\241\277j\274t\223\030\004\246\277\374\251\361\322Mb\220?\270\036\205\353Q\270\216?{\024\256G\341z\244\277\234\304 \260rh\261\277;\337O\215\227n\222?\270\036\205\353Q\270\236?\033/\335$\006\201\245?\364\375\324x\351&\261\277\000\000\000\000\000\000\000\000\372~j\274t\223\210?{\024\256G\341zt\277\372~j\274t\223\250?{\024\256G\341z\204\277{\024\256G\341zt\277\234\304 \260rh\221?\372~j\274t\223\210?\000\000\000\000\000\000\000\000\234\304 \260rh\261?\031\004V\016-\262\235?\272I\014\002+\207\246?{\024\256G\341z\224?9\264\310v\276\237\212?\351&1\010\254\034\252\277;\337O\215\227n\202?L7\211A`\345\240?\333\371~j\274t\223\277\374\251\361\322Mb`?\374\251\361\322Mb`\277\362\322Mb\020X\271?\331\316\367S\343\245\253?y\351&1\010\254|\277;\337O\215\227n\262?9\264\310v\276\237\212\277\270\036\205\353Q\270\216?y\351&1\010\254\234?X9\264\310v\276\237\277\374\251\361\322Mb\200?\374\251\361\322Mb\260\277\211A`\345\320\"\253?\333\371~j\274t\223?\372~j\274t\223h?\374\251\361\322Mb`?\372~j\274t\223h?L7\211A`\345\240?\010\254\034Zd;\257?y\351&1\010\254|\277\372~j\274t\223x?;\337O\215\227n\202?\234\304 \260rh\221\277y\351&1\010\254\234\277y\351&1\010\254\214\277\244p=\n\327\243\260?\272I\014\002+\207\246\277\232\231\231\231\231\231\231?\031\004V\016-\262\235?J\014\002+\207\026\251?\000\000\000\000\000\000\000\000\372~j\274t\223x?Zd;\337O\215\227?Zd;\337O\215\247\277\351&1\010\254\034\252?\000\000\000\000\000\000\000\000\213l\347\373\251\361\242?;\337O\215\227n\202?{\024\256G\341z\224\277\364\375\324x\351&\261?\333\371~j\274t\243\277\213l\347\373\251\361\242\277\313\241E\266\363\375\264?{\024\256G\341z\244\277\333\371~j\274t\243?{\024\256G\341z\224?\211A`\345\320\"\253\277\213l\347\373\251\361\242\277\244p=\n\327\243\260\277L7\211A`\345\240?\272I\014\002+\207\206\277\232\231\231\231\231\231\251\277+\207\026\331\316\367\243?y\351&1\010\254|\277\331\316\367S\343\245\233?j\274t\223\030\004\246?\372~j\274t\223h?\213l\347\373\251\361\242\2779\264\310v\276\237\212\277\n\327\243p=\n\247\277\033/\335$\006\201\245\277{\024\256G\341z\224?\333\371~j\274t\223?\272I\014\002+\207\206\277L7\211A`\345\240?\232\231\231\231\231\231\231\277\232\231\231\231\231\231\231\277\031\004V\016-\262\235?9\264\310v\276\237\232\277X9\264\310v\276\237\277\270\036\205\353Q\270\216\277X9\264\310v\276\237?;\337O\215\227n\202?\303\365(\\\217\302\265\277\374\251\361\322Mb\240\277\374\251\361\322MbP\277\374\251\361\322Mb`?+\207\026\331\316\367\243\277\313\241E\266\363\375\244\277\374\251\361\322Mb`\277{\024\256G\341z\204?9\264\310v\276\237\232?\374\251\361\322Mbp?+\207\026\331\316\367\243?\333\371~j\274t\243\277\033/\335$\006\201\245\277\270\036\205\353Q\270\236\277X9\264\310v\276\237?\372~j\274t\223\230?\252\361\322Mb\020\250?y\351&1\010\254|?\232\231\231\231\231\231\251\277\232\231\231\231\231\231\231\277\333\371~j\274t\223\277Zd;\337O\215\227\277\000\000\000\000\000\000\000\000\234\304 \260rh\241\277\372~j\274t\223h\277X9\264\310v\276\237?;\337O\215\227n\242?\372~j\274t\223h?\234\304 \260rh\241?\010\254\034Zd;\257\277y\351&1\010\254\214\277y\351&1\010\254\214\277\351&1\010\254\034\252?y\351&1\010\254|\277y\351&1\010\254\234\277{\024\256G\341z\224?\372~j\274t\223h\277\234\304 \260rh\221?\270\036\205\353Q\270\216?\354Q\270\036\205\353\261\277{\024\256G\341z\244?\333\371~j\274t\223?\270\036\205\353Q\270\256\2779\264\310v\276\237\232?\374\251\361\322Mb`\277X9\264\310v\276\237\2779\264\310v\276\237\212?X9\264\310v\276\237\277\374\251\361\322Mb\220?\031\004V\016-\262\235\277\234\304 \260rh\221\277Zd;\337O\215\227\277\234\304 \260rh\221?\213l\347\373\251\361\262?y\351&1\010\254|\277;\337O\215\227n\222?\372~j\274t\223\250?;\337O\215\227n\222\277\372~j\274t\223\230?\374\251\361\322Mb`?9\264\310v\276\237\232\277\333\371~j\274t\223\277\031\004V\016-\262\235?\372~j\274t\223\230\277\234\304 \260rh\221?\270\036\205\353Q\270\216\277\374\251\361\322Mbp\277\213l\347\373\251\361\242\277\374\251\361\322Mb`\277\272I\014\002+\207\206\277\374\251\361\322Mb\200\277\213l\347\373\251\361\242?\374\251\361\322Mb\240\2779\264\310v\276\237\212?;\337O\215\227n\242?J\014\002+\207\026\251?\351&1\010\254\034\252\2779\264\310v\276\237\232?\252\361\322Mb\020\250?\033/\335$\006\201\225\277\033/\335$\006\201\245\277\311v\276\237\032/\255?L7\211A`\345\240\277\223\030\004V\016-\262\277\372~j\274t\223\230?9\264\310v\276\237\252?\232\231\231\231\231\231\231?\031\004V\016-\262\255?\031\004V\016-\262\235?9\264\310v\276\237\252?;\337O\215\227n\202?\374\251\361\322Mb\240?\270\036\205\353Q\270\216?{\024\256G\341zt?+\207\026\331\316\367\243?\211A`\345\320\"\253?;\337O\215\227n\242?\272I\014\002+\207\206\277\313\241E\266\363\375\244?\374\251\361\322Mbp\277\232\231\231\231\231\231\231?\213l\347\373\251\361\242?{\024\256G\341z\244\277\313\241E\266\363\375\244\277y\351&1\010\254|\277\374\251\361\322Mb\220\277\331\316\367S\343\245\253?\270\036\205\353Q\270\216?\270\036\205\353Q\270\216?9\264\310v\276\237\252\277\033/\335$\006\201\225?j\274t\223\030\004\246?{\024\256G\341z\224\277\333\371~j\274t\223?\313\241E\266\363\375\244\277\333\371~j\274t\223?\331\316\367S\343\245\233?y\351&1\010\254\234\277\234\304 \260rh\241\277\372~j\274t\223\230?\331\316\367S\343\245\233?\372~j\274t\223x\277\270\036\205\353Q\270\216\277\331\316\367S\343\245\233\277\374\251\361\322Mb\200?Zd;\337O\215\227?\000\000\000\000\000\000\000\000\374\251\361\322Mb`?\351&1\010\254\034\252?\307K7\211A`\305\277\372~j\274t\223x\277\270\036\205\353Q\270\236\277\234\304 \260rh\221\277\374\251\361\322Mb\220\277;\337O\215\227n\202?\000\000\000\000\000\000\000\000\374\251\361\322Mb`\277\343\245\233\304 \260\262?;\337O\215\227n\202?y\351&1\010\254|\277\n\327\243p=\n\247\277\372~j\274t\223\230\2779\264\310v\276\237\212?\372~j\274t\223\210?;\337O\215\227n\262?\372~j\274t\223x?\213l\347\373\251\361\242\277\n\327\243p=\n\267\277\033/\335$\006\201\225\277Zd;\337O\215\227\2779\264\310v\276\237\212\277{\024\256G\341z\204\277\374\251\361\322Mb`\277\272I\014\002+\207\226\277X9\264\310v\276\237\2779\264\310v\276\237\212\277;\337O\215\227n\262\277Zd;\337O\215\247\2779\264\310v\276\237\232?\031\004V\016-\262\235?#\333\371~j\274\264?\270\036\205\353Q\270\216?Zd;\337O\215\227\277{\024\256G\341z\204\277Zd;\337O\215\247\277y\351&1\010\254|\277\372~j\274t\223h?;\337O\215\227n\242\277j\274t\223\030\004\246\277\333\371~j\274t\223\277\252\361\322Mb\020\270\277\374\251\361\322Mb\200?9\264\310v\276\237\212\277L7\211A`\345\240\277\031\004V\016-\262\235?;\337O\215\227n\202\277+\207\026\331\316\367\243?9\264\310v\276\237\232?{\024\256G\341z\204?y\351&1\010\254|\277\272I\014\002+\207\226\277\234\304 \260rh\241?\372~j\274t\223\230\277\354Q\270\036\205\353\241?{\024\256G\341z\244?\372~j\274t\223\230?y\351&1\010\254|\277y\351&1\010\254|?sh\221\355|?\265\277\213l\347\373\251\361\242?\270\036\205\353Q\270\216\277X9\264\310v\276\237\277\252\361\322Mb\020\250?;\337O\215\227n\242\277\270\036\205\353Q\270\216\277{\024\256G\341z\224?;\337O\215\227n\222?{\024\256G\341z\224?y\351&1\010\254\234?;\337O\215\227n\202\277L7\211A`\345\240?\374\251\361\322Mb`?\272I\014\002+\207\226\277L7\211A`\345\240\277\234\304 